{
  "vocab": [
    "<pad>",
    "<unk>",
    "<cls>",
    "<sep>",
    "<url>",
    "<user>",
    "<num>",
    "پ",
    "ا",
    "ن",
    "چ</w>",
    "ف",
    "ی",
    "ص",
    "د</w>",
    "د",
    "و",
    "ب",
    "ی</w>",
    "ت",
    "ک",
    "ر",
    "ق",
    "ل",
    "ت</w>",
    "چ",
    "ھ",
    "ر</w>",
    "س",
    "ث",
    "ے</w>",
    "خ",
    "ف</w>",
    "ہ",
    "ش",
    "گ",
    "ب</w>",
    "ک</w>",
    "؟</w>",
    "–</w>",
    "ق</w>",
    "س</w>",
    "و</w>",
    "ہ</w>",
    "ز",
    "ح",
    "م",
    "ج",
    "ں</w>",
    "۔</w>",
    "ڈ",
    "ٹ</w>",
    "،</w>",
    "ا</w>",
    "م</w>",
    "ش</w>",
    "ن</w>",
    "ع",
    "ز</w>",
    "ظ",
    "پ</w>",
    "ط",
    "آ",
    "p",
    "o",
    "t</w>",
    "k",
    "a</w>",
    "m",
    "i",
    "y",
    "a",
    "r</w>",
    "c",
    "h",
    "f",
    "i</w>",
    "z",
    "b",
    "ٹ",
    "گ</w>",
    ".</w>",
    "ط</w>",
    "ح</w>",
    "ل</w>",
    "ڑ",
    "/</w>",
    "(</w>",
    ")</w>",
    "\"</w>",
    "غ</w>",
    "ض",
    "ھ</w>",
    "'</w>",
    "ع</w>",
    "q",
    "u",
    "l",
    "t",
    "y</w>",
    "s",
    "b</w>",
    "h</w>",
    "j",
    "e</w>",
    "m</w>",
    "w",
    "e",
    "n",
    "k</w>",
    "d</w>",
    "r",
    "g",
    "n</w>",
    "l</w>",
    "v",
    "d",
    "u</w>",
    "s</w>",
    "g</w>",
    "o</w>",
    "w</w>",
    "ذ",
    "!</w>",
    "*</w>",
    "*",
    "z</w>",
    "ڈ</w>",
    "ﺅ</w>",
    "ج</w>",
    "خ</w>",
    "آ</w>",
    ":</w>",
    "غ",
    "j</w>",
    "p</w>",
    "🤣</w>",
    "ص</w>",
    "$</w>",
    "x",
    "ث</w>",
    ",</w>",
    "-</w>",
    "√</w>",
    "f</w>",
    "q</w>",
    "ظ</w>",
    "ژ",
    "😒</w>",
    "😂</w>",
    "ض</w>",
    "ے",
    "?</w>",
    "9</w>",
    "v</w>",
    "ڑ</w>",
    "c</w>",
    "ء</w>",
    "x</w>",
    "3",
    "0",
    "…</w>",
    "_",
    "_</w>",
    "“",
    "”</w>",
    "؛</w>",
    "&</w>",
    "1",
    "6",
    "4</w>",
    "%</w>",
    "😉</w>",
    "ذ</w>",
    "😘</w>",
    "ﻣ",
    "ﺮ",
    "ﯾ",
    "ﻢ</w>",
    "ﻧ",
    "ﻮ",
    "ﺍ",
    "ﺯ",
    "ﮐ",
    "ﯽ</w>",
    "ﺗ",
    "ﮫ</w>",
    "ﻟ",
    "ﻥ</w>",
    "ﺳ",
    "ﮑ",
    "ﯿ",
    "ﭼ",
    "ﭘ",
    "ﻦ</w>",
    "ﻌ",
    "ﻨ",
    "ﺎ",
    "ﮯ",
    "ﺧ",
    "ﻼ",
    "ﻑ</w>",
    "ﺩ",
    "ﺭ",
    "ﺖ</w>",
    "ﮨ",
    "ﺋ",
    "ﭦ</w>",
    "ﮟ</w>",
    "ﻤ",
    "ﻋ",
    "ﮮ",
    "ﺸ",
    "ﻞ</w>",
    "ﻘ",
    "ﯼ</w>",
    "ﻃ",
    "ﮧ</w>",
    "ﻭ",
    "ﮕ",
    "ﺭ</w>",
    "😁</w>",
    "🤓</w>",
    "😝</w>",
    "😜</w>",
    "4",
    "+</w>",
    "’",
    "‘</w>",
    "😑</w>",
    "‘",
    "/",
    "🤪</w>",
    "ö",
    "2",
    "8",
    "ء",
    "😛</w>",
    "%",
    "😍</w>",
    "٪</w>",
    "ﮔ",
    "ﮞ</w>",
    "ﮯ</w>",
    "ﮬ",
    "ﺪ",
    "ﮦ</w>",
    "ﻻ</w>",
    "ﺎ</w>",
    "ﻝ</w>",
    "ﺑ",
    "ﯽ",
    "ﮭ",
    "ﺮ</w>",
    "ﮩ",
    "ﺞ</w>",
    "ﮮ</w>",
    "✌</w>",
    "ﺴ",
    "ﻠ",
    "ﻖ</w>",
    "ﺻ",
    "ﺡ</w>",
    "ﻮ</w>",
    "ﺨ",
    "ﻕ</w>",
    "ﺱ</w>",
    "ﻓ",
    "ﺟ",
    "é</w>",
    "😄</w>",
    "😃</w>",
    "😀</w>",
    "😬</w>",
    "“</w>",
    "#</w>",
    "9",
    "😹</w>",
    "’</w>",
    "☻</w>",
    "`",
    "½</w>",
    "😏</w>",
    "🤔</w>",
    "ٴ",
    "0</w>",
    "1</w>",
    "></w>",
    "💃</w>",
    "<</w>",
    "2</w>",
    "ﻡ</w>",
    "ﺩ</w>",
    "ﻗ",
    "ﺕ</w>",
    "ﺪ</w>",
    "ﺘ",
    "ﺒ",
    "ﭧ</w>",
    "ﺷ",
    "ﺰ",
    "5",
    "~</w>",
    "®</w>",
    "[</w>",
    "]</w>",
    "ﺅ",
    "5</w>",
    "👻</w>",
    "👿</w>",
    "😇</w>",
    "ﺖ",
    "ﺯ</w>",
    "ﺲ</w>",
    "ﺌ",
    "ﭩ",
    "ﺼ",
    "💋</w>",
    "&",
    "3</w>",
    "ﺁ",
    "ﭧ",
    "ﺤ",
    "ﺣ",
    "ﻔ",
    "ﻆ</w>",
    "ﻐ",
    "💕</w>",
    ">",
    ";</w>",
    "🦁</w>",
    "🐯</w>",
    "ﺝ</w>",
    "ﺿ",
    "ﮍ",
    "ﮞ",
    "ﭽ",
    "ﺍ</w>",
    "8</w>",
    "・",
    "{</w>",
    "@</w>",
    "😕</w>",
    "😓</w>",
    "ﷺ</w>",
    "😌</w>",
    "😎</w>",
    "ﮒ</w>",
    "ﺏ</w>",
    "फ",
    "ॉ",
    "😆</w>",
    "🙌</w>",
    "è",
    "`</w>",
    "}</w>",
    "र",
    "्",
    "थ</w>",
    "»</w>",
    "🙏</w>",
    "7",
    "⁰",
    "❤</w>",
    "️</w>",
    "ﭨ",
    "ﺰ</w>",
    "😅</w>",
    "=</w>",
    "ں",
    "©</w>",
    "ñ",
    "ô",
    "ò",
    "ﻻ",
    "ﮎ</w>",
    "ﺠ",
    "🤠</w>",
    "#",
    "�",
    "€",
    "ﻭ</w>",
    "ﮏ</w>",
    "ﻊ</w>",
    "ۂ</w>",
    "6</w>",
    "😚</w>",
    "🌚</w>",
    "ﮈ",
    "ﮓ</w>",
    "ﺐ</w>",
    "ﮟ",
    "ﮉ",
    "ﻊ",
    "ﺛ",
    "ڻ",
    "💖</w>",
    "ﭖ</w>",
    "ﮧ",
    "😔</w>",
    "ﮦ",
    "ﻢ",
    "ﻑ",
    "ﻏ",
    "ﭺ</w>",
    "ﻬ",
    "ﮌ</w>",
    "🚶</w>",
    "‍</w>",
    "♀</w>",
    "ò</w>",
    "🙄</w>",
    "प",
    "殿",
    "😱</w>",
    "😈</w>",
    "﷽</w>",
    "٭</w>",
    "٭",
    "¡",
    "☹</w>",
    "🐒</w>",
    "ﻈ",
    "ﮈ</w>",
    "ﻍ</w>",
    "ﮌ",
    "ﻇ",
    "ﻄ",
    "ﺶ</w>",
    "😳</w>",
    "ﭗ</w>",
    "ﻀ",
    "😥</w>",
    "ﺫ",
    "ﺚ</w>",
    "😡</w>",
    "ફ",
    "્",
    "ર",
    "😭</w>",
    "ﺀ</w>",
    "ﮍ</w>",
    "🤐</w>",
    "😠</w>",
    "👊</w>",
    "+",
    "🤦</w>",
    "🏻</w>",
    "😋</w>",
    "☺</w>",
    "🙈</w>",
    "😢</w>",
    "ô</w>",
    "ﷲ</w>",
    "=",
    "ब",
    "े",
    "ल",
    "ा</w>",
    "¿",
    "¿</w>",
    "یں</w>",
    "ha",
    "ہے</w>",
    "ای",
    "میں</w>",
    "کے</w>",
    "ور</w>",
    "نے</w>",
    "ہیں</w>",
    "سے</w>",
    "کی</w>",
    "اس</w>",
    "کر",
    "اور</w>",
    "یہ</w>",
    "فل",
    "in</w>",
    "وں</w>",
    "ان",
    "hai</w>",
    "ار",
    "لی",
    "ھی</w>",
    "ar",
    "hi</w>",
    "فلم</w>",
    "aa",
    "ایک</w>",
    "me",
    "کہ</w>",
    "کو</w>",
    "ری",
    "تا</w>",
    "دی",
    "is",
    "نہیں</w>",
    "ma",
    "ہو",
    "وا",
    "ھا</w>",
    "کی",
    "کا</w>",
    "پر</w>",
    "ha</w>",
    "ke</w>",
    "ار</w>",
    "بہ",
    "na",
    "mein</w>",
    "sa",
    "ho",
    "ur</w>",
    "اد",
    "ee",
    "بھی</w>",
    "ات",
    "اس",
    "می",
    "ac",
    "کھ",
    "نا</w>",
    "ta",
    "ra",
    "ھے</w>",
    "aur</w>",
    "را",
    "تھا</w>",
    "se</w>",
    "وی",
    "نا",
    "ki</w>",
    "la",
    "iy",
    "ar</w>",
    "کن</w>",
    "گی",
    "مج",
    "ور",
    "آپ</w>",
    "بہت</w>",
    "ne</w>",
    "تے</w>",
    "ان</w>",
    "ال",
    "ta</w>",
    "bo",
    "سی</w>",
    "wa",
    "ba",
    "لیکن</w>",
    "mu",
    "ye",
    "لا",
    "تی</w>",
    "ہی</w>",
    "لی</w>",
    "مو",
    "لیے</w>",
    "کیا</w>",
    "وہ</w>",
    "مجھے</w>",
    "نی</w>",
    "ka</w>",
    "اچ",
    "دیکھ",
    "iss</w>",
    "جو</w>",
    "in",
    "yeh</w>",
    "te",
    "اہ",
    "ام</w>",
    "hu",
    "پی",
    "ری</w>",
    "خو",
    "hat</w>",
    "اک",
    "oo",
    "ya</w>",
    "kar",
    "لے</w>",
    "ہوں</w>",
    "ja",
    "رو",
    "سک",
    "زی",
    "bohat</w>",
    "طر",
    "bhi</w>",
    "ka",
    "le",
    "کچ",
    "قی",
    "de",
    "اپ",
    "na</w>",
    "طور</w>",
    "کہ",
    "اسے</w>",
    "si",
    "دہ</w>",
    "کچھ</w>",
    "ko</w>",
    "با",
    "اگ",
    "سی",
    "تھی</w>",
    "بی",
    "سن",
    "انی</w>",
    "اری</w>",
    "اتھ</w>",
    "جی",
    "تو</w>",
    "گی</w>",
    "دو",
    "طرح</w>",
    "ساتھ</w>",
    "li",
    "ادہ</w>",
    "بر",
    "من",
    "اداک",
    "ga",
    "nahi</w>",
    "kha",
    "pa",
    "he",
    "اں</w>",
    "he</w>",
    "تک</w>",
    "اب",
    "ایی</w>",
    "دیک",
    "رین</w>",
    "وق",
    "نی",
    "il",
    "tha</w>",
    "زیادہ</w>",
    "ارے</w>",
    "عم",
    "da",
    "hain</w>",
    "ال</w>",
    "کوی",
    "صر",
    "ara",
    "کرد",
    "وی</w>",
    "سو",
    "کو",
    "بہت",
    "حی",
    "لو",
    "hi",
    "ھو",
    "یز</w>",
    "صرف</w>",
    "کرنے</w>",
    "ام",
    "on</w>",
    "کر</w>",
    "ye</w>",
    "کویی</w>",
    "kaa",
    "کسی</w>",
    "یے</w>",
    "ai",
    "جس</w>",
    "pe",
    "acha</w>",
    "پہ",
    "achi</w>",
    "یا</w>",
    "re",
    "hay</w>",
    "گا</w>",
    "be",
    "اگر</w>",
    "اب</w>",
    "kin</w>",
    "واق",
    "رہ",
    "رے</w>",
    "hon</w>",
    "بن",
    "مع",
    "اف",
    "to",
    "ظر</w>",
    "واقع",
    "گیا</w>",
    "پسن",
    "سب</w>",
    "قاب",
    "فلم",
    "ri",
    "ڈی",
    "ست",
    "cha",
    "کہانی</w>",
    "جا",
    "aar</w>",
    "اچھی</w>",
    "رت</w>",
    "چاہ",
    "ہاں</w>",
    "ti</w>",
    "کرتا</w>",
    "نگ</w>",
    "کل</w>",
    "da</w>",
    "muj",
    "مح",
    "iye</w>",
    "یر</w>",
    "it",
    "دیکھنے</w>",
    "بد",
    "ni</w>",
    "سکتا</w>",
    "ہر</w>",
    "nd</w>",
    "ra</w>",
    "لا</w>",
    "ku",
    "جو",
    "نہ</w>",
    "ایے</w>",
    "hee",
    "ٹی",
    "aik</w>",
    "جب</w>",
    "اداکاری</w>",
    "دی</w>",
    "ھی",
    "پر",
    "ٹی</w>",
    "or",
    "par</w>",
    "ناک</w>",
    "un",
    "بارے</w>",
    "ke",
    "ون",
    "فلموں</w>",
    "ti",
    "قابل</w>",
    "ro",
    "وقت</w>",
    "کم</w>",
    "mujhe</w>",
    "خت",
    "سا</w>",
    "nay</w>",
    "ات</w>",
    "واقعی</w>",
    "lekin</w>",
    "اح",
    "بات</w>",
    "حیرت</w>",
    "ڈی</w>",
    "aat</w>",
    "qa",
    "iya</w>",
    "il</w>",
    "تی",
    "re</w>",
    "te</w>",
    "کبھی</w>",
    "جہ</w>",
    "پسند</w>",
    "اپنے</w>",
    "مز",
    "ho</w>",
    "ri</w>",
    "kaam</w>",
    "کردار</w>",
    "خرا",
    "ap",
    "لگ",
    "کام</w>",
    "یقی",
    "ست</w>",
    "بہترین</w>",
    "tar",
    "miy",
    "mo",
    "ٹر</w>",
    "ing</w>",
    "kar</w>",
    "ڑا</w>",
    "su",
    "mas",
    "liye</w>",
    "خراب</w>",
    "la</w>",
    "ہو</w>",
    "اند",
    "خوف",
    "مض",
    "aal</w>",
    "دیکھا</w>",
    "mat</w>",
    "رہا</w>",
    "ty</w>",
    "za",
    "th</w>",
    "قی</w>",
    "خیز</w>",
    "عمدہ</w>",
    "کرتے</w>",
    "کار",
    "kh",
    "خوفناک</w>",
    "ہن",
    "co",
    "کریں</w>",
    "ch</w>",
    "دل",
    "no",
    "بچ",
    "sha",
    "ya",
    "ما",
    "گے</w>",
    "un</w>",
    "اص",
    "miyaar</w>",
    "انت",
    "ہوا</w>",
    "بے</w>",
    "ورت</w>",
    "ہوتا</w>",
    "ھر</w>",
    "is</w>",
    "دیا</w>",
    "qee",
    "تھے</w>",
    "بار</w>",
    "انگی",
    "مووی</w>",
    "وری</w>",
    "انگیز</w>",
    "حکہ</w>",
    "مضحکہ</w>",
    "حقی",
    "را</w>",
    "می</w>",
    "ند",
    "اتی</w>",
    "او",
    "qu",
    "بو",
    "ایا</w>",
    "امی",
    "پلا",
    "le</w>",
    "کار</w>",
    "لط",
    "بدت",
    "چی",
    "ga</w>",
    "st</w>",
    "ko",
    "may</w>",
    "بع",
    "کرنا</w>",
    "lo",
    "بڑ",
    "مت",
    "اپنی</w>",
    "چھو",
    "thi</w>",
    "di",
    "بال",
    "در",
    "اروں</w>",
    "اچھا</w>",
    "گیی</w>",
    "بہتر</w>",
    "مش",
    "والی</w>",
    "پلاٹ</w>",
    "جاتا</w>",
    "bar",
    "یہاں</w>",
    "میرے</w>",
    "غیر</w>",
    "ce</w>",
    "لگتا</w>",
    "ہم</w>",
    "پہلے</w>",
    "me</w>",
    "han</w>",
    "jo</w>",
    "do",
    "لڑ",
    "مت</w>",
    "مر",
    "iste",
    "نو",
    "ree",
    "sath</w>",
    "چس",
    "والے</w>",
    "کوش",
    "maal</w>",
    "se",
    "مک",
    "کش",
    "مل</w>",
    "al",
    "ہایی</w>",
    "دلچس",
    "ay</w>",
    "چاہیے</w>",
    "بعد</w>",
    "ہونے</w>",
    "گھ",
    "qeemat</w>",
    "nai</w>",
    "bil",
    "اسکر",
    "وجہ</w>",
    "istemaal</w>",
    "ki",
    "فار",
    "فی",
    "du",
    "khu",
    "لہ</w>",
    "gha",
    "say</w>",
    "کوشش</w>",
    "جان",
    "اد</w>",
    "از</w>",
    "an",
    "بی</w>",
    "ze</w>",
    "بدترین</w>",
    "اسٹ",
    "mil",
    "ve",
    "so",
    "قت</w>",
    "خا",
    "دوس",
    "مای",
    "tay</w>",
    "چیز</w>",
    "فری",
    "ہی",
    "کت",
    "پڑ",
    "سکتے</w>",
    "میری</w>",
    "یی</w>",
    "kay</w>",
    "جایے</w>",
    "chee",
    "اث",
    "کیوں</w>",
    "aap</w>",
    "ran",
    "کس</w>",
    "بھ",
    "lay</w>",
    "ہویے</w>",
    "aad</w>",
    "kya</w>",
    "beh",
    "yar</w>",
    "masno",
    "ندگی</w>",
    "qua",
    "bu",
    "رات</w>",
    "ter",
    "جن",
    "کل",
    "بص",
    "ارہ</w>",
    "برد",
    "dara",
    "koi</w>",
    "شای",
    "اصل</w>",
    "masnoaat</w>",
    "مل",
    "ضر",
    "آخ",
    "ایسا</w>",
    "پھر</w>",
    "size</w>",
    "رہے</w>",
    "iya",
    "دیکھنا</w>",
    "زی</w>",
    "li</w>",
    "sh</w>",
    "تم",
    "der</w>",
    "lity</w>",
    "بالکل</w>",
    "یقین</w>",
    "تع",
    "tu</w>",
    "daraz</w>",
    "تھ",
    "تص",
    "een</w>",
    "shi",
    "سوچ",
    "kul</w>",
    "ge</w>",
    "حد</w>",
    "haha",
    "پیش</w>",
    "ch",
    "خی",
    "thay</w>",
    "quality</w>",
    "بری</w>",
    "tu",
    "ny</w>",
    "جیسے</w>",
    "دلچسپ</w>",
    "bilkul</w>",
    "پو",
    "ni",
    "انہ</w>",
    "ne",
    "شی",
    "raha</w>",
    "di</w>",
    "اٹ",
    "karta</w>",
    "mere</w>",
    "اییں</w>",
    "لوگ",
    "shu",
    "خاص</w>",
    "اہر</w>",
    "گر",
    "en</w>",
    "دو</w>",
    "gaya</w>",
    "دیکھی</w>",
    "peh",
    "مہ</w>",
    "افی</w>",
    "wo",
    "کاس",
    "دیکھ</w>",
    "خوبص",
    "دیکھیں</w>",
    "زندگی</w>",
    "حص",
    "nhi</w>",
    "منا",
    "usay</w>",
    "ون</w>",
    "فلمیں</w>",
    "شاید</w>",
    "تمام</w>",
    "لوگوں</w>",
    "اتنا</w>",
    "زبرد",
    "مین</w>",
    "قری",
    "تر",
    "نوں</w>",
    "isi</w>",
    "pasa",
    "سوس</w>",
    "لطف</w>",
    "حقیقت</w>",
    "ts</w>",
    "انے</w>",
    "نظر</w>",
    "sh",
    "مب",
    "kr",
    "to</w>",
    "رکھ",
    "waq",
    "mil</w>",
    "ین</w>",
    "hota</w>",
    "mayar</w>",
    "کرتی</w>",
    "زبردست</w>",
    "ly</w>",
    "رچ",
    "مناظر</w>",
    "اداکار</w>",
    "لای",
    "پری",
    "اتے</w>",
    "امل</w>",
    "ٹھی",
    "ونکہ</w>",
    "order</w>",
    "نگ",
    "han",
    "ٹر",
    "پٹ</w>",
    "ٹھیک</w>",
    "قس",
    "sa</w>",
    "cheez</w>",
    "مق",
    "اع",
    "کاسٹ</w>",
    "دیتا</w>",
    "وار</w>",
    "sak",
    "صو",
    "فر",
    "kia</w>",
    "gi</w>",
    "رہی</w>",
    "pasand</w>",
    "جود</w>",
    "kharee",
    "ہد",
    "سال</w>",
    "وس</w>",
    "دل</w>",
    "خوا",
    "کافی</w>",
    "fa",
    "pro",
    "asa",
    "است",
    "ہوتی</w>",
    "karne</w>",
    "tor</w>",
    "نڈ",
    "ٹری",
    "cha</w>",
    "یت</w>",
    "انا</w>",
    "ray</w>",
    "از",
    "منٹ</w>",
    "سن</w>",
    "par",
    "پاس</w>",
    "sab</w>",
    "it</w>",
    "اح</w>",
    "مار",
    "aram</w>",
    "ہار",
    "برا</w>",
    "اسکرپٹ</w>",
    "نڈ</w>",
    "کیونکہ</w>",
    "سمج",
    "منظر</w>",
    "fi</w>",
    "rang</w>",
    "چھ",
    "اسک",
    "tou</w>",
    "کشن</w>",
    "انتہایی</w>",
    "ur",
    "rat</w>",
    "خوبصورت</w>",
    "گو",
    "ce",
    "پوری</w>",
    "ہدای",
    "خود</w>",
    "rf</w>",
    "ایسی</w>",
    "ما</w>",
    "پی</w>",
    "والا</w>",
    "خیال</w>",
    "نٹ",
    "ڑے</w>",
    "kuch</w>",
    "ہویی</w>",
    "baad</w>",
    "ول</w>",
    "لیا</w>",
    "dar",
    "سر",
    "اسی</w>",
    "ایم</w>",
    "کامی",
    "ht</w>",
    "ag",
    "har</w>",
    "سکتی</w>",
    "mi",
    "شر",
    "عہ</w>",
    "hot</w>",
    "عام</w>",
    "خوش",
    "تفری",
    "تر</w>",
    "ab</w>",
    "wa</w>",
    "بت</w>",
    "ختم</w>",
    "دکھ",
    "بنا",
    "ہوگا</w>",
    "thee",
    "جاتی</w>",
    "sirf</w>",
    "woh</w>",
    "شامل</w>",
    "al</w>",
    "آد",
    "رچہ</w>",
    "ران</w>",
    "علا",
    "مخت",
    "اگرچہ</w>",
    "hy</w>",
    "ذری",
    "po",
    "bi",
    "pi",
    "ja</w>",
    "تھو",
    "کرسکتا</w>",
    "مزاح",
    "آخر</w>",
    "رہ</w>",
    "ایع</w>",
    "مط",
    "ry</w>",
    "ct</w>",
    "چل",
    "mar",
    "بور",
    "hone</w>",
    "شخ",
    "shir",
    "isa</w>",
    "oon</w>",
    "ضایع</w>",
    "ایی",
    "see",
    "الی</w>",
    "پریش",
    "بل",
    "ڈیو</w>",
    "مد",
    "or</w>",
    "mi</w>",
    "دور</w>",
    "ادی</w>",
    "tareen</w>",
    "we",
    "مان",
    "tho",
    "اچھے</w>",
    "waqa",
    "apne</w>",
    "مزاح</w>",
    "جوا",
    "jab</w>",
    "kaafi</w>",
    "ky",
    "وال",
    "گیے</w>",
    "achay</w>",
    "مزاحیہ</w>",
    "za</w>",
    "sy</w>",
    "نس</w>",
    "اہم</w>",
    "mera</w>",
    "تح",
    "nu",
    "zar",
    "عمر</w>",
    "isay</w>",
    "وف</w>",
    "kh</w>",
    "کھی",
    "شرو",
    "ٹو",
    "ابھی</w>",
    "ach",
    "ڈرا",
    "بیٹ",
    "پہلی</w>",
    "لہ",
    "مکمل</w>",
    "وو",
    "تب",
    "اخت",
    "کارکرد",
    "jis</w>",
    "ہم",
    "us",
    "شہ</w>",
    "کارکردگی</w>",
    "کرداروں</w>",
    "ge",
    "pac",
    "یاد</w>",
    "waqt</w>",
    "theek</w>",
    "پس</w>",
    "ادا</w>",
    "اثرات</w>",
    "فی</w>",
    "itna</w>",
    "تھی",
    "terhan</w>",
    "وقوف</w>",
    "ڑی</w>",
    "ca",
    "مست",
    "شخص</w>",
    "behtareen</w>",
    "مس",
    "میرا</w>",
    "محبت</w>",
    "waqai</w>",
    "din</w>",
    "ine</w>",
    "نیا</w>",
    "kiya</w>",
    "phone</w>",
    "ru",
    "اچھ</w>",
    "سارے</w>",
    "اسٹی",
    "ناقابل</w>",
    "yi</w>",
    "آس",
    "haa",
    "کہیں</w>",
    "the",
    "diya</w>",
    "بڑی</w>",
    "مشکل</w>",
    "بنانے</w>",
    "با</w>",
    "انداز</w>",
    "اتنی</w>",
    "بارہ</w>",
    "لف</w>",
    "ایہ</w>",
    "meri</w>",
    "یقینی</w>",
    "اش",
    "sahi</w>",
    "mila</w>",
    "شروع</w>",
    "تک",
    "قد",
    "wo</w>",
    "ood</w>",
    "ہنس",
    "حقیقی</w>",
    "بورنگ</w>",
    "ویڈیو</w>",
    "دوبارہ</w>",
    "sho",
    "برا",
    "بنی",
    "جانے</w>",
    "ziya",
    "اٹھ",
    "دا</w>",
    "بل</w>",
    "اری",
    "گری",
    "lag",
    "ir</w>",
    "aam</w>",
    "ویر</w>",
    "بچوں</w>",
    "سفار",
    "محسوس</w>",
    "st",
    "nt</w>",
    "karna</w>",
    "چاہتے</w>",
    "ایکشن</w>",
    "سفارش</w>",
    "قص</w>",
    "produ",
    "آر",
    "دھ",
    "vi",
    "pe</w>",
    "ہوگی</w>",
    "لوگ</w>",
    "per</w>",
    "معلو",
    "موجود</w>",
    "کرایہ</w>",
    "بن</w>",
    "ہونا</w>",
    "mut",
    "che",
    "ہوسکتا</w>",
    "دوسرے</w>",
    "اپنا</w>",
    "ish</w>",
    "ہمی",
    "جیب</w>",
    "عمال</w>",
    "چاہتا</w>",
    "اثر</w>",
    "سوچا</w>",
    "سام",
    "امید</w>",
    "ذریعہ</w>",
    "استعمال</w>",
    "طرف</w>",
    "امری",
    "بغیر</w>",
    "بجایے</w>",
    "عجیب</w>",
    "دے</w>",
    "جر",
    "شو</w>",
    "لیس</w>",
    "cho",
    "lakin</w>",
    "chah",
    "tion</w>",
    "ہمیشہ</w>",
    "ٹن</w>",
    "بہ</w>",
    "تلا",
    "پرو",
    "unkay</w>",
    "تقری",
    "ہارر</w>",
    "bhot</w>",
    "si</w>",
    "آیا</w>",
    "معمو",
    "خصو",
    "حر",
    "ziyada</w>",
    "فت",
    "ژن</w>",
    "نام</w>",
    "muta",
    "حاصل</w>",
    "ضرورت</w>",
    "دونوں</w>",
    "kisi</w>",
    "تفریح</w>",
    "اختت",
    "اپ</w>",
    "سٹ</w>",
    "ٹس</w>",
    "gu",
    "ista",
    "معلوم</w>",
    "نق",
    "گر</w>",
    "تین</w>",
    "com",
    "sakta</w>",
    "ma</w>",
    "shirts</w>",
    "پریشان</w>",
    "آی",
    "soo",
    "khush</w>",
    "ll</w>",
    "جان</w>",
    "حیث",
    "پرفار",
    "mutma",
    "حیثیت</w>",
    "مذ",
    "hua</w>",
    "شاند",
    "گوار</w>",
    "خصوص",
    "rs</w>",
    "tar</w>",
    "leha",
    "سیری",
    "وقع</w>",
    "hir</w>",
    "چیز",
    "ہر",
    "bi</w>",
    "مار</w>",
    "صلا",
    "باہر</w>",
    "ss</w>",
    "fi",
    "لو</w>",
    "man",
    "ter</w>",
    "product</w>",
    "بج",
    "فو",
    "mal</w>",
    "bac",
    "اداکاروں</w>",
    "پرفارمن",
    "بت",
    "ٹا</w>",
    "meh",
    "isse</w>",
    "aya</w>",
    "کہنا</w>",
    "علاوہ</w>",
    "نس",
    "نچ",
    "zi",
    "اق</w>",
    "jata</w>",
    "baat</w>",
    "تھوڑا</w>",
    "تحری",
    "ناقص</w>",
    "صلاحی",
    "tak</w>",
    "lah</w>",
    "zar</w>",
    "انہوں</w>",
    "asan</w>",
    "تاری",
    "kyunkay</w>",
    "تقریبا</w>",
    "پرفارمنس</w>",
    "gi",
    "ذا</w>",
    "de</w>",
    "دار</w>",
    "حصہ</w>",
    "اسکرین</w>",
    "ہدایت</w>",
    "گھنٹ",
    "اختتام</w>",
    "لہذا</w>",
    "نظ",
    "aas</w>",
    "ڈال",
    "bara",
    "درجہ</w>",
    "rice</w>",
    "تلاش</w>",
    "شاندار</w>",
    "اف</w>",
    "صر</w>",
    "ریب</w>",
    "حال",
    "جہاں</w>",
    "جاتے</w>",
    "fe",
    "بیوقوف</w>",
    "جھ",
    "شو",
    "ex",
    "گرا",
    "the</w>",
    "مقاب",
    "کتاب</w>",
    "کلاس",
    "جاسک",
    "ٹک",
    "انس",
    "eer</w>",
    "مرک",
    "مایوس</w>",
    "us</w>",
    "لر</w>",
    "آنے</w>",
    "kha</w>",
    "باقی</w>",
    "تو",
    "ساس</w>",
    "far",
    "main</w>",
    "واز</w>",
    "بنا</w>",
    "اندو",
    "وہاں</w>",
    "and</w>",
    "کردیا</w>",
    "خوشی</w>",
    "seel</w>",
    "سیریز</w>",
    "غریب</w>",
    "عی</w>",
    "نک",
    "تہ</w>",
    "سای",
    "بور</w>",
    "lat</w>",
    "لگی</w>",
    "انتظ",
    "بڑے</w>",
    "shukr",
    "کامیڈی</w>",
    "اندوز</w>",
    "دن</w>",
    "کروں</w>",
    "saa",
    "khara",
    "واقعتا</w>",
    "karte</w>",
    "ting</w>",
    "آیی</w>",
    "لک",
    "کن",
    "جذ",
    "dar</w>",
    "خلا",
    "pak",
    "dah</w>",
    "بندی</w>",
    "لطی",
    "شن</w>",
    "on",
    "پھ",
    "سر</w>",
    "ڈو",
    "bha",
    "mee",
    "بین</w>",
    "tara",
    "قریب</w>",
    "agar</w>",
    "دنیا</w>",
    "تصویر</w>",
    "ju",
    "ضح</w>",
    "pehlay</w>",
    "مختلف</w>",
    "توقع</w>",
    "price</w>",
    "shukriya</w>",
    "واضح</w>",
    "**",
    "لن</w>",
    "je",
    "سخ",
    "جن</w>",
    "نف",
    "دیں</w>",
    "کری",
    "itni</w>",
    "ker</w>",
    "سمجھ",
    "لم",
    "th",
    "qa</w>",
    "کیسے</w>",
    "rha</w>",
    "متی</w>",
    "پسندی",
    "ڈیو",
    "لمح",
    "تیار</w>",
    "ظاہر</w>",
    "اعت",
    "جی</w>",
    "قہ</w>",
    "sar",
    "qab",
    "ساز",
    "ad",
    "بس</w>",
    "pu",
    "tas",
    "فرا",
    "lag</w>",
    "fil",
    "con",
    "مکال",
    "افسوس</w>",
    "واپس</w>",
    "tarseel</w>",
    "نٹ</w>",
    "فر</w>",
    "فای",
    "دینے</w>",
    "taj",
    "موسی",
    "lif</w>",
    "day</w>",
    "معی",
    "ket</w>",
    "apni</w>",
    "آخری</w>",
    "جوان</w>",
    "آتا</w>",
    "iski</w>",
    "وسی</w>",
    "سنی",
    "ker",
    "khta",
    "آگے</w>",
    "aa</w>",
    "no</w>",
    "قت",
    "kho",
    "bat",
    "پڑا</w>",
    "دہایی</w>",
    "قسم</w>",
    "kharab</w>",
    "پسندیدہ</w>",
    "ve</w>",
    "pl",
    "tab",
    "hue</w>",
    "خوش</w>",
    "ندہ</w>",
    "آدمی</w>",
    "تاہم</w>",
    "pakista",
    "سا",
    "صن",
    "چے</w>",
    "گز",
    "لط</w>",
    "این</w>",
    "کرس",
    "روں</w>",
    "بلی",
    "زید</w>",
    "بڑا</w>",
    "bara</w>",
    "تش",
    "چو",
    "دد</w>",
    "لڈ</w>",
    "rahi</w>",
    "bhe",
    "رومان",
    "lagta</w>",
    "mukhta",
    "مے</w>",
    "نز</w>",
    "ایسے</w>",
    "aac",
    "پور",
    "hui</w>",
    "چھوڑ</w>",
    "قیمت</w>",
    "واحد</w>",
    "ہوسکتی</w>",
    "ورژن</w>",
    "موسیقی</w>",
    "غلط</w>",
    "مزید</w>",
    "pr",
    "iz</w>",
    "حق</w>",
    "hal",
    "لیف</w>",
    "maz",
    "آتی</w>",
    "isko</w>",
    "ساری</w>",
    "khan</w>",
    "for",
    "تھیں</w>",
    "لاین</w>",
    "پولیس</w>",
    "احساس</w>",
    "aaccha</w>",
    "yo",
    "ہوتے</w>",
    "bad</w>",
    "muna",
    "موق",
    "ستہ</w>",
    "ہوجاتا</w>",
    "دوسری</w>",
    "ازہ</w>",
    "معمولی</w>",
    "سازش</w>",
    "اہ</w>",
    "جے</w>",
    "لب</w>",
    "bat</w>",
    "abhi</w>",
    "سل",
    "مث",
    "ek</w>",
    "نک</w>",
    "mj",
    "ایل</w>",
    "جار",
    "خری",
    "his",
    "فلمی</w>",
    "پرست",
    "چھوٹی</w>",
    "سس",
    "ڈر",
    "es</w>",
    "ٹے</w>",
    "ہمیں</w>",
    "war",
    "میو",
    "thi",
    "مرکزی</w>",
    "کا",
    "تا",
    "lu",
    "ban",
    "کون</w>",
    "بھو",
    "than",
    "مذاق</w>",
    "mukhtalif</w>",
    "en",
    "رح",
    "ks</w>",
    "کیم",
    "سال",
    "bah</w>",
    "too",
    "sil</w>",
    "sib</w>",
    "جیسا</w>",
    "munasib</w>",
    "انج",
    "ویل</w>",
    "poo",
    "lon</w>",
    "king</w>",
    "جانتا</w>",
    "تصور</w>",
    "zaroo",
    "براہ</w>",
    "موقع</w>",
    "lo</w>",
    "جا</w>",
    "طری",
    "پیار</w>",
    "کہا</w>",
    "khe",
    "baar</w>",
    "wali</w>",
    "وجود</w>",
    "ووڈ</w>",
    "mutmaen</w>",
    "تکلیف</w>",
    "کم",
    "عل",
    "مہ",
    "جل",
    "جای",
    "انہیں</w>",
    "دیتی</w>",
    "مجمو",
    "kam",
    "rahay</w>",
    "بنایی</w>",
    "ٹریک</w>",
    "تھیٹر</w>",
    "am</w>",
    "آج</w>",
    "ہور</w>",
    "کرے</w>",
    "mai</w>",
    "kee",
    "sta",
    "gai</w>",
    "محض</w>",
    "بنایا</w>",
    "جاییں</w>",
    "دوران</w>",
    "بلکہ</w>",
    "تبدی",
    "بنیادی</w>",
    "چیزیں</w>",
    "بجٹ</w>",
    "سنیما</w>",
    "مظ",
    "لف",
    "نو</w>",
    "انوں</w>",
    "اتا</w>",
    "mam</w>",
    "موا",
    "char",
    "hoti</w>",
    "game</w>",
    "جنسی</w>",
    "bht</w>",
    "متاثر</w>",
    "du</w>",
    "um",
    "pp",
    "ذہ",
    "ba</w>",
    "ton</w>",
    "masla</w>",
    "لڑکی</w>",
    "tery</w>",
    "ضرور</w>",
    "دلچسپی</w>",
    "thora</w>",
    "jaisay</w>",
    "soos</w>",
    "مطلب</w>",
    "بر</w>",
    "ایس</w>",
    "توں</w>",
    "دیکھو</w>",
    "جاری</w>",
    "عمل</w>",
    "کمز",
    "wala</w>",
    "ڈرامہ</w>",
    "nazar</w>",
    "آواز</w>",
    "نیچے</w>",
    "کش</w>",
    "go",
    "ey</w>",
    "فے</w>",
    "جت",
    "aan</w>",
    "maj",
    "راس",
    "jal",
    "دگی</w>",
    "gaye</w>",
    "ہنسی</w>",
    "dia</w>",
    "dos",
    "کتنا</w>",
    "cer</w>",
    "خوشگوار</w>",
    "مختصر</w>",
    "نوجوان</w>",
    "at</w>",
    "نش",
    "جگ",
    "واہ</w>",
    "ویی</w>",
    "پیچ",
    "sir</w>",
    "یقینا</w>",
    "ہنس</w>",
    "کرسکتے</w>",
    "ہالی</w>",
    "والوں</w>",
    "صلاحیت</w>",
    "صد</w>",
    "پل",
    "ap</w>",
    "cu",
    "کٹ</w>",
    "انی",
    "پار",
    "رار</w>",
    "ral</w>",
    "lea",
    "chi",
    "امی</w>",
    "per",
    "dast</w>",
    "تعل",
    "انتظار</w>",
    "قسمتی</w>",
    "pakistan</w>",
    "ند</w>",
    "سہ</w>",
    "چل</w>",
    "اے</w>",
    "آہ",
    "ارڈ</w>",
    "gra",
    "ویز</w>",
    "hta</w>",
    "bana",
    "gya</w>",
    "fit",
    "کٹر</w>",
    "karen</w>",
    "very</w>",
    "meine</w>",
    "صنف</w>",
    "mehsoos</w>",
    "کمزور</w>",
    "قل</w>",
    "لیں</w>",
    "ڈای",
    "جسے</w>",
    "nal</w>",
    "gar</w>",
    "مجھ</w>",
    "کہہ</w>",
    "سیٹ</w>",
    "ٹنگ</w>",
    "جانا</w>",
    "ght</w>",
    "ہمارے</w>",
    "chahiye</w>",
    "خواتین</w>",
    "جاسکتا</w>",
    "tamam</w>",
    "طہ</w>",
    "ab",
    "مم",
    "غی",
    "ٹای",
    "bhai</w>",
    "gar",
    "taq</w>",
    "ran</w>",
    "وہی</w>",
    "دیکھتے</w>",
    "آیے</w>",
    "zabar",
    "ghar</w>",
    "حصے</w>",
    "امریکی</w>",
    "behtar</w>",
    "phir</w>",
    "گھنٹے</w>",
    "انجام</w>",
    "battery</w>",
    "as",
    "عظ",
    "ٹو</w>",
    "زک</w>",
    "سلی",
    "dee",
    "pla",
    "line</w>",
    "hen</w>",
    "ملا</w>",
    "لڑکے</w>",
    "ck</w>",
    "بری",
    "وان</w>",
    "راد</w>",
    "boo",
    "chu",
    "سنجی",
    "sti",
    "گھر</w>",
    "eay</w>",
    "bura</w>",
    "pur",
    "herat</w>",
    "خصوصی</w>",
    "مابین</w>",
    "qabil</w>",
    "tajur",
    "معیار</w>",
    "پرستار</w>",
    "مظاہ",
    "آہستہ</w>",
    "افراد</w>",
    "dd</w>",
    "ھیں</w>",
    "لوں</w>",
    "bar</w>",
    "دیتے</w>",
    "hum</w>",
    "jah</w>",
    "لینڈ</w>",
    "maine</w>",
    "سخت</w>",
    "this</w>",
    "رک",
    "یم</w>",
    "او</w>",
    "حی</w>",
    "aw",
    "of</w>",
    "لینے</w>",
    "کیی</w>",
    "اتنے</w>",
    "خات",
    "bot</w>",
    "joo",
    "زدہ</w>",
    "لگا</w>",
    "دوست",
    "بھی",
    "اصلی</w>",
    "liay</w>",
    "ضروری</w>",
    "allah</w>",
    "مظاہرہ</w>",
    "دا",
    "ہا</w>",
    "وٹ</w>",
    "gn</w>",
    "آف</w>",
    "foo",
    "ool</w>",
    "ber</w>",
    "گھٹ",
    "jaisa</w>",
    "good</w>",
    "mutabi",
    "زندہ</w>",
    "kr</w>",
    "zi</w>",
    "ham",
    "mer</w>",
    "ریف</w>",
    "hoo",
    "iska</w>",
    "kap",
    "سیکوی",
    "jaye</w>",
    "جنگ</w>",
    "tch</w>",
    "reen</w>",
    "پڑتا</w>",
    "khareeda</w>",
    "tajurbah</w>",
    "ٹھ",
    "گا",
    "عن",
    "اض",
    "پن</w>",
    "lt</w>",
    "لکی",
    "was</w>",
    "kal</w>",
    "پاگ",
    "قات</w>",
    "سست</w>",
    "فیص",
    "walay</w>",
    "رکھنے</w>",
    "khareed",
    "خواہ",
    "باوجود</w>",
    "مجموعی</w>",
    "zabardast</w>",
    "میوزک</w>",
    "شا",
    "ps</w>",
    "دس</w>",
    "ایٹ</w>",
    "aaj</w>",
    "tal",
    "لات</w>",
    "تیز</w>",
    "بیکار</w>",
    "laga</w>",
    "ture</w>",
    "مدد</w>",
    "فتار</w>",
    "قتل</w>",
    "چھوٹے</w>",
    "جگہ</w>",
    "مقصد</w>",
    "wajah</w>",
    "sign</w>",
    "تخ",
    "پک",
    "لین</w>",
    "ari</w>",
    "eed</w>",
    "tee",
    "aray</w>",
    "سوچ</w>",
    "کول</w>",
    "jati</w>",
    "بچے</w>",
    "yat</w>",
    "پڑے</w>",
    "asal</w>",
    "pack</w>",
    "lehaza</w>",
    "پہنچ",
    "paas</w>",
    "صاف</w>",
    "عظیم</w>",
    "mutabiq</w>",
    "لس</w>",
    "سط",
    "dis",
    "aasa",
    "قات",
    "میک</w>",
    "lai</w>",
    "اوہ</w>",
    "پاک",
    "ابت",
    "ابق</w>",
    "رہتا</w>",
    "دست",
    "taree",
    "suk",
    "شکار</w>",
    "anga",
    "ملک</w>",
    "دکھایی</w>",
    "مستحق</w>",
    "ft</w>",
    "کت</w>",
    "زب",
    "آن",
    "sp",
    "ڈر</w>",
    "لینا</w>",
    "bla",
    "دان</w>",
    "hona</w>",
    "باد</w>",
    "pre",
    "ونڈ</w>",
    "sun</w>",
    "rakh",
    "بڑھ",
    "time</w>",
    "اداکارہ</w>",
    "لنگ",
    "ہدایت",
    "قدر</w>",
    "lehaz</w>",
    "تاریخ</w>",
    "اندازہ</w>",
    "تفریحی</w>",
    "پاگل</w>",
    "design</w>",
    "angaiz</w>",
    "af",
    "شی</w>",
    "nd",
    "قے</w>",
    "رو</w>",
    "من</w>",
    "مز</w>",
    "ca</w>",
    "fu",
    "ham</w>",
    "کرو</w>",
    "انکہ</w>",
    "لانے</w>",
    "موش</w>",
    "loo",
    "lle",
    "deta</w>",
    "برٹ</w>",
    "ada</w>",
    "ناکام</w>",
    "دوست</w>",
    "بدتر</w>",
    "تشدد</w>",
    "لطیفے</w>",
    "بدقسمتی</w>",
    "پاکست",
    "حالانکہ</w>",
    "ng</w>",
    "ms</w>",
    "ٹک</w>",
    "gh</w>",
    "ضی</w>",
    "ڑنے</w>",
    "رام</w>",
    "toh</w>",
    "log",
    "لڑایی</w>",
    "khud</w>",
    "mili</w>",
    "ہین</w>",
    "pic",
    "مکالمہ</w>",
    "مثال</w>",
    "packing</w>",
    "گھٹیا</w>",
    "aasani</w>",
    "sukoon</w>",
    "ہدایتکار</w>",
    "یو",
    "فا",
    "au",
    "ph",
    "لز</w>",
    "زن</w>",
    "ci",
    "یکی</w>",
    "taa",
    "haha</w>",
    "iske</w>",
    "bas</w>",
    "سنی</w>",
    "deli",
    "laga",
    "tri",
    "بوط</w>",
    "bari</w>",
    "سمت</w>",
    "ver",
    "iyat</w>",
    "aisa</w>",
    "پیدا</w>",
    "مقابلے</w>",
    "umdah</w>",
    "online</w>",
    "سیکویل</w>",
    "خواہش</w>",
    "کلاسیکی</w>",
    "ii</w>",
    "ut</w>",
    "qi</w>",
    "نر</w>",
    "پای",
    "دید</w>",
    "موت</w>",
    "kabhi</w>",
    "khi",
    "وقات</w>",
    "نتی",
    "app</w>",
    "ney</w>",
    "naram</w>",
    "شرم</w>",
    "بنیاد</w>",
    "تجر",
    "پرواہ</w>",
    "ثر</w>",
    "گل</w>",
    "پت",
    "fa</w>",
    "گو</w>",
    "ٹل</w>",
    "car",
    "man</w>",
    "ملی</w>",
    "khari",
    "wor",
    "ترتی",
    "لمب",
    "dari</w>",
    "nume",
    "کھیل</w>",
    "سامنے</w>",
    "تبدیل</w>",
    "اوقات</w>",
    "numeral</w>",
    "نچ</w>",
    "تج",
    "as</w>",
    "hin</w>",
    "sat",
    "لکھ",
    "des</w>",
    "سید",
    "جیسی</w>",
    "gah</w>",
    "بننے</w>",
    "کنگ</w>",
    "پھی",
    "liya</w>",
    "توجہ</w>",
    "مایی",
    "hwa</w>",
    "تبصر",
    "طویل</w>",
    "پیسہ</w>",
    "fitting</w>",
    "ممکن</w>",
    "foot</w>",
    "ad</w>",
    "sk",
    "im",
    "سم",
    "رک</w>",
    "jo",
    "جر</w>",
    "سوں</w>",
    "دوں</w>",
    "انک</w>",
    "ولی",
    "qar",
    "ڈری",
    "چار</w>",
    "وین</w>",
    "laho",
    "منی</w>",
    "پلے</w>",
    "کاپ",
    "بطور</w>",
    "بند</w>",
    "kum</w>",
    "اوپر</w>",
    "درمی",
    "کتنی</w>",
    "hahaha</w>",
    "دانہ</w>",
    "جواب</w>",
    "dekh</w>",
    "سلس",
    "ہل",
    "an</w>",
    "my</w>",
    "جم",
    "sb</w>",
    "نار",
    "ارا</w>",
    "ise</w>",
    "may",
    "دینا</w>",
    "لام</w>",
    "ٹری</w>",
    "کہتے</w>",
    "pai",
    "نیی</w>",
    "حال</w>",
    "fai",
    "chay</w>",
    "جوش</w>",
    "zan</w>",
    "اسٹار</w>",
    "gayi</w>",
    "naam</w>",
    "vice</w>",
    "plz</w>",
    "فیصلہ</w>",
    "رفتار</w>",
    "silai</w>",
    "پاکستان</w>",
    "مضبوط</w>",
    "قط",
    "چا",
    "رز</w>",
    "در</w>",
    "عر",
    "ff</w>",
    "sam",
    "اوی",
    "waz</w>",
    "موڑ</w>",
    "دیکھتا</w>",
    "ادری</w>",
    "khaya</w>",
    "معنی</w>",
    "chal",
    "saal</w>",
    "ماد</w>",
    "ble</w>",
    "اللہ</w>",
    "نمای",
    "kaamil</w>",
    "dagi</w>",
    "achch",
    "تحریر</w>",
    "کلاسک</w>",
    "لمحات</w>",
    "فراہم</w>",
    "film</w>",
    "گویی</w>",
    "پیچھے</w>",
    "اسکول</w>",
    "قاتل</w>",
    "تھ</w>",
    "ah",
    "رق",
    "صی",
    "pk</w>",
    "کرم</w>",
    "ارک</w>",
    "mad</w>",
    "کیے</w>",
    "اسب</w>",
    "war</w>",
    "ورڈ</w>",
    "اہل",
    "زیر</w>",
    "شہر</w>",
    "کرایے</w>",
    "dekh",
    "yada</w>",
    "مانے</w>",
    "کوڑے</w>",
    "bohot</w>",
    "lawa</w>",
    "thori</w>",
    "قبل</w>",
    "دیگر</w>",
    "ساینس</w>",
    "نفرت</w>",
    "تاکہ</w>",
    "جایز",
    "ڈایری",
    "مطابق</w>",
    "سنسنی</w>",
    "ae",
    "طا",
    "فن</w>",
    "sha</w>",
    "یاد",
    "خان</w>",
    "ورتی</w>",
    "bana</w>",
    "she",
    "معام",
    "ڈیز",
    "عات</w>",
    "moha",
    "عورت</w>",
    "دوسرا</w>",
    "ملتا</w>",
    "مبنی</w>",
    "اعلی</w>",
    "سمجھا</w>",
    "آسانی</w>",
    "expe",
    "مقابلہ</w>",
    "خلاف</w>",
    "دلکش</w>",
    "زبان</w>",
    "کاپی</w>",
    "رقم</w>",
    "ed</w>",
    "عے</w>",
    "vo",
    "بو</w>",
    "مس</w>",
    "جہ",
    "کرو",
    "nah</w>",
    "sas",
    "waz",
    "ban</w>",
    "ڈاک",
    "سین",
    "بیان</w>",
    "lia</w>",
    "pat",
    "dain</w>",
    "lye</w>",
    "رنگ</w>",
    "band</w>",
    "انتخ",
    "ver</w>",
    "waad</w>",
    "گرم</w>",
    "زمین</w>",
    "بیٹھ</w>",
    "تھوڑی</w>",
    "ڈیوڈ</w>",
    "مایوسی</w>",
    "dono</w>",
    "jaldi</w>",
    "تعریف</w>",
    "lahore</w>",
    "be</w>",
    "ایڈ",
    "فلک</w>",
    "aata</w>",
    "baz",
    "int</w>",
    "zin",
    "tea</w>",
    "برو",
    "بننا</w>",
    "karti</w>",
    "چلا</w>",
    "ken</w>",
    "roz</w>",
    "نڈی</w>",
    "qat</w>",
    "عین</w>",
    "گولی</w>",
    "حیران</w>",
    "mujhy</w>",
    "آسان</w>",
    "ہنسنے</w>",
    "barah</w>",
    "گرافی</w>",
    "umee",
    "taraf</w>",
    "waqqa</w>",
    "لفظ</w>",
    "جتنا</w>",
    "آوٹ</w>",
    "ماییکل</w>",
    "ڈایریکٹر</w>",
    "خوبصورتی</w>",
    "ڈاکٹر</w>",
    "انتخاب</w>",
    "mawaad</w>",
    "یا",
    "ru</w>",
    "gh",
    "چی</w>",
    "sc",
    "do</w>",
    "رس</w>",
    "rd</w>",
    "چار",
    "لیز</w>",
    "mat",
    "عوا",
    "درا",
    "mene</w>",
    "خال",
    "ina</w>",
    "گرو",
    "dad</w>",
    "دما",
    "کمی</w>",
    "ہوگیی</w>",
    "کشی</w>",
    "mobil",
    "جانتے</w>",
    "متحر",
    "مجبور</w>",
    "لکھا</w>",
    "جذبات</w>",
    "you</w>",
    "بھول</w>",
    "دوستوں</w>",
    "mber</w>",
    "picture</w>",
    "pursukoon</w>",
    "ترتیب</w>",
    "hukum</w>",
    "ذریعے</w>",
    "متحرک</w>",
    "va",
    "سو</w>",
    "غر",
    "گن</w>",
    "pha",
    "پرا",
    "لاب</w>",
    "شاہ",
    "کردہ</w>",
    "بال</w>",
    "دایی</w>",
    "ہوگیا</w>",
    "wit",
    "banay</w>",
    "اسٹوری</w>",
    "stu",
    "سمجھ</w>",
    "کامیاب</w>",
    "shirt</w>",
    "karoon</w>",
    "ناگوار</w>",
    "baray</w>",
    "اکثر</w>",
    "kharidari</w>",
    "اعتماد</w>",
    "شت</w>",
    "**</w>",
    "بخ",
    "ڈز",
    "آز",
    "فت</w>",
    "شک",
    "نل</w>",
    "چکی</w>",
    "کریہ</w>",
    "aab</w>",
    "mau",
    "lac",
    "tam</w>",
    "مور",
    "کیلیے</w>",
    "inte",
    "ابی</w>",
    "گھو",
    "bri",
    "aun",
    "tro",
    "رکھتے</w>",
    "ناول</w>",
    "ment</w>",
    "دھر",
    "mang",
    "mukam",
    "مشہور</w>",
    "راستے</w>",
    "سنجیدہ</w>",
    "jootay</w>",
    "تعلقات</w>",
    "تخلی",
    "نتیجہ</w>",
    "blades</w>",
    "درمیان</w>",
    "tawaqqa</w>",
    "mobile</w>",
    "mukammal</w>",
    "مد</w>",
    "dy</w>",
    "ذب</w>",
    "dho",
    "nee",
    "tane</w>",
    "کال",
    "bay</w>",
    "یہی</w>",
    "علی</w>",
    "سادہ</w>",
    "کہاں</w>",
    "حکو",
    "ستارے</w>",
    "جاو</w>",
    "daar</w>",
    "سٹر</w>",
    "best</w>",
    "ser",
    "ٹون</w>",
    "ally</w>",
    "pahan",
    "for</w>",
    "اشت</w>",
    "llah</w>",
    "پتہ</w>",
    "لمبے</w>",
    "haasil</w>",
    "وغی",
    "awla</w>",
    "ساونڈ</w>",
    "ziada</w>",
    "ضیا",
    "شکریہ</w>",
    "pahannay</w>",
    "وغیرہ</w>",
    "دہ",
    "ڈٹ</w>",
    "نت",
    "فح",
    "ذی",
    "ww",
    "آغ",
    "سم</w>",
    "شک</w>",
    "کوں</w>",
    "کلی",
    "men",
    "ماس",
    "bra",
    "lam",
    "گین</w>",
    "آتے</w>",
    "ind",
    "ite",
    "روم</w>",
    "kaha</w>",
    "ذکر</w>",
    "chan",
    "honay</w>",
    "dil</w>",
    "khail</w>",
    "اون</w>",
    "log</w>",
    "colo",
    "all</w>",
    "تھر",
    "بناییں</w>",
    "نڈا</w>",
    "اٹھایا</w>",
    "chahta</w>",
    "چیزوں</w>",
    "bachon</w>",
    "چھوٹا</w>",
    "tasw",
    "نقطہ</w>",
    "حرکت</w>",
    "سامعین</w>",
    "ابتدایی</w>",
    "ڈزنی</w>",
    "khatam</w>",
    "مہذب</w>",
    "ضیاع</w>",
    "تن",
    "شل</w>",
    "تب</w>",
    "had</w>",
    "انق",
    "دیر</w>",
    "eem</w>",
    "مان</w>",
    "bal",
    "ملا",
    "min",
    "اکس</w>",
    "fara",
    "its</w>",
    "بیٹی</w>",
    "keh",
    "خاند",
    "uch</w>",
    "باتی</w>",
    "پڑھ",
    "بھایی</w>",
    "khush",
    "mush",
    "چلنے</w>",
    "پروڈ",
    "ٹکڑا</w>",
    "mjhe</w>",
    "سالوں</w>",
    "magar</w>",
    "plasti",
    "رومانٹک</w>",
    "پسندانہ</w>",
    "mayoo",
    "دستاوی",
    "پرانے</w>",
    "آغاز</w>",
    "کس",
    "ro</w>",
    "ضو",
    "سط</w>",
    "فلی",
    "zin</w>",
    "پان",
    "sab",
    "ورہ</w>",
    "mun",
    "karo</w>",
    "جین</w>",
    "ماں</w>",
    "دییے</w>",
    "teri",
    "apna</w>",
    "غلط",
    "low</w>",
    "لڑکا</w>",
    "دکھایا</w>",
    "ہوجاتی</w>",
    "مسٹر</w>",
    "امریکہ</w>",
    "معمول</w>",
    "نظر",
    "tarah</w>",
    "thanks</w>",
    "zaroor</w>",
    "keemat</w>",
    "صلاحیتوں</w>",
    "لکیر</w>",
    "آنکھ",
    "پرجوش</w>",
    "ریلیز</w>",
    "جذباتی</w>",
    "plastic</w>",
    "دستاویزی</w>",
    "موضو",
    "غلطی</w>",
    "پا",
    "لگ</w>",
    "صل</w>",
    "مر</w>",
    "tt",
    "تف",
    "گہ",
    "فض",
    "ڈا</w>",
    "پڑ</w>",
    "haf",
    "لنے</w>",
    "انس</w>",
    "بار",
    "jac",
    "تنا",
    "اسپی",
    "doo",
    "پیرو",
    "برگ</w>",
    "مند</w>",
    "منت",
    "بیوی</w>",
    "پہلا</w>",
    "sus",
    "پایا</w>",
    "nice</w>",
    "مبر</w>",
    "خدا</w>",
    "saaf</w>",
    "متعل",
    "pping</w>",
    "قرار</w>",
    "عنوان</w>",
    "لنگڑا</w>",
    "تجویز</w>",
    "قادری</w>",
    "shuru</w>",
    "خر",
    "صے</w>",
    "سچ</w>",
    "عت</w>",
    "چہ",
    "اط",
    "har",
    "ایو",
    "مری",
    "راک</w>",
    "ویسے</w>",
    "بنی</w>",
    "روف</w>",
    "قیان",
    "قین</w>",
    "شدہ</w>",
    "تبا",
    "zai",
    "fre",
    "sto",
    "ٹیپ</w>",
    "مناک</w>",
    "جنو",
    "جنس</w>",
    "wohi</w>",
    "رکھیں</w>",
    "ٹرز</w>",
    "howa</w>",
    "آرٹ</w>",
    "shish</w>",
    "mutmaeen</w>",
    "فہر",
    "hojata</w>",
    "ٹکڑے</w>",
    "رحم</w>",
    "ذہن</w>",
    "majmo",
    "watch</w>",
    "فراموش</w>",
    "مناسب</w>",
    "فہرست</w>",
    "رم</w>",
    "اڑ",
    "ls</w>",
    "دع",
    "ji</w>",
    "ایف</w>",
    "sam</w>",
    "ادر</w>",
    "جاد",
    "jee",
    "bta",
    "bta</w>",
    "پیٹ</w>",
    "پیسے</w>",
    "roo",
    "کہنے</w>",
    "gay</w>",
    "dai",
    "صحی",
    "رایے</w>",
    "بعض</w>",
    "درست</w>",
    "ghan",
    "and",
    "sorat</w>",
    "ٹایم</w>",
    "آدھے</w>",
    "مداح</w>",
    "آسٹری",
    "jood</w>",
    "dekha</w>",
    "شتہ</w>",
    "فایدہ</w>",
    "ence</w>",
    "hasil</w>",
    "charge</w>",
    "nicer</w>",
    "سطح</w>",
    "khaas</w>",
    "achchca</w>",
    "umeed</w>",
    "کریڈٹ</w>",
    "tasweer</w>",
    "پروڈکشن</w>",
    "mayoos</w>",
    "دقیان",
    "صحیح</w>",
    "cs</w>",
    "ڈن</w>",
    "hn</w>",
    "zz",
    "مٹ",
    "bs</w>",
    "فٹ</w>",
    "بوں</w>",
    "انگ</w>",
    "lar",
    "eez</w>",
    "rac",
    "tak",
    "box</w>",
    "baki</w>",
    "بیک</w>",
    "سلو",
    "جھو",
    "رہتے</w>",
    "ori",
    "chal</w>",
    "شکل</w>",
    "site</w>",
    "inho</w>",
    "wale</w>",
    "yahan</w>",
    "داد</w>",
    "تیزی</w>",
    "شیط",
    "ہوشی",
    "پچھ",
    "qmi",
    "kyun</w>",
    "ہنسنا</w>",
    "انگری",
    "ghair</w>",
    "veer</w>",
    "لمبی</w>",
    "مکالمے</w>",
    "lease</w>",
    "mmer</w>",
    "ilawa</w>",
    "شاہکار</w>",
    "with</w>",
    "mangwa",
    "متعلق</w>",
    "دقیانوسی</w>",
    "ہوشیار</w>",
    "qmizin</w>",
    "حم",
    "وز</w>",
    "تم</w>",
    "عی",
    "رڈ</w>",
    "am",
    "es",
    "قو",
    "py</w>",
    "ky</w>",
    "طے</w>",
    "غور</w>",
    "گور</w>",
    "ein</w>",
    "لیٹ</w>",
    "shi</w>",
    "naa",
    "وال</w>",
    "کین</w>",
    "کھو",
    "کھو</w>",
    "پیغ",
    "reh",
    "baal</w>",
    "khil",
    "yal</w>",
    "bus</w>",
    "pehli</w>",
    "ترقی</w>",
    "بناتے</w>",
    "ہوگیے</w>",
    "تحریک</w>",
    "کاش</w>",
    "dicer</w>",
    "اسرار</w>",
    "rehta</w>",
    "تجربہ</w>",
    "حکومت</w>",
    "برداشت</w>",
    "انقلاب</w>",
    "شایقین</w>",
    "majmoi</w>",
    "لت</w>",
    "اض</w>",
    "wn</w>",
    "خی</w>",
    "سل</w>",
    "ڈز</w>",
    "ہٹ</w>",
    "ھوں</w>",
    "انگ",
    "طان",
    "لیت</w>",
    "jaa",
    "کیری",
    "گار</w>",
    "sai</w>",
    "میت</w>",
    "میل</w>",
    "میم</w>",
    "سوی",
    "ناظ",
    "مال",
    "مسی",
    "سین</w>",
    "pata</w>",
    "rahe</w>",
    "سوس",
    "ڈھو",
    "kiye</w>",
    "ماح",
    "بچہ</w>",
    "hoga</w>",
    "ممک",
    "ghar",
    "ghari</w>",
    "behte",
    "گندگی</w>",
    "chota</w>",
    "گانا</w>",
    "garam</w>",
    "boht</w>",
    "ویژن</w>",
    "آیی",
    "well</w>",
    "جاسکتی</w>",
    "just</w>",
    "table</w>",
    "طریقہ</w>",
    "cut",
    "چند</w>",
    "اضاف",
    "انصاف</w>",
    "طریقے</w>",
    "ذہین</w>",
    "گروپ</w>",
    "stuff</w>",
    "hisaab</w>",
    "service</w>",
    "کارٹون</w>",
    "mushk",
    "terial</w>",
    "دراصل</w>",
    "خرچ</w>",
    "شرمناک</w>",
    "koshish</w>",
    "انگریزی</w>",
    "برطان",
    "ناظرین</w>",
    "افسوس",
    "ممکنہ</w>",
    "افسوسناک</w>",
    "اق",
    "لک</w>",
    "وے</w>",
    "اج</w>",
    "چر</w>",
    "سکے</w>",
    "are</w>",
    "عری",
    "دین</w>",
    "جاس",
    "اسکی",
    "ویم",
    "lam</w>",
    "bata",
    "روک",
    "روک</w>",
    "آسک",
    "ماری</w>",
    "ابت</w>",
    "دھو",
    "gre",
    "تلا</w>",
    "سٹی",
    "unhon</w>",
    "itnay</w>",
    "sri</w>",
    "ming</w>",
    "kht</w>",
    "بھر</w>",
    "kis</w>",
    "ندے</w>",
    "ذاتی</w>",
    "متع",
    "same</w>",
    "سوچنے</w>",
    "tum</w>",
    "socha</w>",
    "achcha</w>",
    "kerta</w>",
    "خرید",
    "لاہور</w>",
    "باصلاحیت</w>",
    "کہانی",
    "مستقل</w>",
    "boot</w>",
    "hadd</w>",
    "belt</w>",
    "experi",
    "khareedain</w>",
    "bsorat</w>",
    "ترمیم</w>",
    "ویمپای",
    "مبتلا</w>",
    "ai</w>",
    "er</w>",
    "تق",
    "ld</w>",
    "we</w>",
    "tw</w>",
    "دم</w>",
    "ایت</w>",
    "کری</w>",
    "الی",
    "چکا</w>",
    "sar</w>",
    "cla",
    "one</w>",
    "bak",
    "رول</w>",
    "phe",
    "hein</w>",
    "فایی</w>",
    "بدل</w>",
    "اون",
    "گون",
    "qata</w>",
    "hotay</w>",
    "ہوسکتے</w>",
    "chhota</w>",
    "کامل</w>",
    "saktay</w>",
    "اسکور</w>",
    "aayi</w>",
    "اٹھاییں</w>",
    "بیمار</w>",
    "انسان</w>",
    "انسانی</w>",
    "haalat</w>",
    "ایلن</w>",
    "اعترا",
    "سفر</w>",
    "bheja</w>",
    "طنز</w>",
    "مقامی</w>",
    "خاتون</w>",
    "kapra</w>",
    "satis",
    "bazaar</w>",
    "aunty</w>",
    "trimmer</w>",
    "ناراض</w>",
    "mushkil</w>",
    "آسکر</w>",
    "experience</w>",
    "khobsorat</w>",
    "وف",
    "لم</w>",
    "صہ</w>",
    "ak",
    "وض",
    "جب",
    "گڑ",
    "up</w>",
    "ﯿﮟ</w>",
    "رای",
    "rhi</w>",
    "mar</w>",
    "ہار</w>",
    "sal",
    "pee",
    "اسر</w>",
    "dra",
    "وروں</w>",
    "کتے</w>",
    "شان</w>",
    "الگ</w>",
    "mul",
    "ind</w>",
    "hun</w>",
    "moo",
    "dena</w>",
    "ترین</w>",
    "ada",
    "hoon</w>",
    "رہنے</w>",
    "fri",
    "زنہ</w>",
    "ٹیلی</w>",
    "coun",
    "بچا</w>",
    "shan</w>",
    "چین</w>",
    "مردہ</w>",
    "مرد</w>",
    "فقت</w>",
    "آرہی</w>",
    "خواب</w>",
    "سیاسی</w>",
    "شتر</w>",
    "عمران</w>",
    "pic</w>",
    "چلتا</w>",
    "haan</w>",
    "chez</w>",
    "نظارہ</w>",
    "ہوجاتے</w>",
    "sifar",
    "ghalat</w>",
    "پورا</w>",
    "bbat</w>",
    "zaroorat</w>",
    "جلد</w>",
    "مصنف</w>",
    "logon</w>",
    "الفا",
    "لمبا</w>",
    "jagah</w>",
    "پیمانے</w>",
    "مستقبل</w>",
    "laken</w>",
    "دماغ</w>",
    "blac",
    "فحش</w>",
    "jacket</w>",
    "behtereen</w>",
    "material</w>",
    "ثابت</w>",
    "ویمپایر</w>",
    "vaqata</w>",
    "موازنہ</w>",
    "sifarish</w>",
    "mohabbat</w>",
    "الفاظ</w>",
    "black</w>",
    "شہ",
    "az",
    "غض",
    "ویں</w>",
    "ذای",
    "رہیں</w>",
    "یوں</w>",
    "ٹوں</w>",
    "موں</w>",
    "انت</w>",
    "khi</w>",
    "aaz</w>",
    "ریٹ</w>",
    "fac",
    "کور",
    "wap",
    "لاک</w>",
    "ila</w>",
    "کردی</w>",
    "sahi",
    "ٹھو",
    "tre",
    "افت</w>",
    "kit",
    "und</w>",
    "پرانی</w>",
    "یات</w>",
    "احت</w>",
    "rate</w>",
    "resu",
    "iza",
    "جما",
    "مشت",
    "rang",
    "تھام",
    "اٹھا</w>",
    "حصوں</w>",
    "گانے</w>",
    "احمق",
    "بنانا</w>",
    "جوڑے</w>",
    "agar",
    "بناتا</w>",
    "cal</w>",
    "پریشانی</w>",
    "ڈراو",
    "بیٹھ",
    "قدرے</w>",
    "bache</w>",
    "پروڈیو",
    "team</w>",
    "arey</w>",
    "راست</w>",
    "dosray</w>",
    "تعلق</w>",
    "برباد</w>",
    "ماضی</w>",
    "hahahaha</w>",
    "kahin</w>",
    "ناممکن</w>",
    "لاجواب</w>",
    "awaz</w>",
    "mesha</w>",
    "خالص</w>",
    "لڑکوں</w>",
    "ماسٹر</w>",
    "پانچ</w>",
    "مشورہ</w>",
    "پیغام</w>",
    "اضافہ</w>",
    "جبکہ</w>",
    "بیشتر</w>",
    "احمقانہ</w>",
    "لن",
    "چھ</w>",
    "اٹ</w>",
    "wi",
    "چم",
    "زو",
    "pr</w>",
    "jb</w>",
    "زا</w>",
    "پا</w>",
    "ٹم</w>",
    "نیں</w>",
    "وای",
    "چکے</w>",
    "شوں</w>",
    "سبھی</w>",
    "سنا</w>",
    "tan</w>",
    "لوی",
    "لیتے</w>",
    "ing",
    "ste",
    "that</w>",
    "aaya</w>",
    "اگلی</w>",
    "سیک",
    "ہاتھ</w>",
    "جیک</w>",
    "like</w>",
    "برے</w>",
    "شوق",
    "ron</w>",
    "spe",
    "واقعہ</w>",
    "cham",
    "احت",
    "qay</w>",
    "بول</w>",
    "چھوڑ",
    "ali</w>",
    "play</w>",
    "buri</w>",
    "tum",
    "nika",
    "sakti</w>",
    "منصو",
    "فرق</w>",
    "khareed</w>",
    "مارنے</w>",
    "theen</w>",
    "haal</w>",
    "waja</w>",
    "نوعمر</w>",
    "paisay</w>",
    "ther</w>",
    "تازہ</w>",
    "balon</w>",
    "سچی</w>",
    "کامیابی</w>",
    "جعلی</w>",
    "brand</w>",
    "تھرلر</w>",
    "تفصی",
    "ذایقہ</w>",
    "شوقیہ</w>",
    "er",
    "ll",
    "so</w>",
    "eh",
    "سب",
    "فس</w>",
    "بح",
    "ریں</w>",
    "شری",
    "nis",
    "lee",
    "بات",
    "لنا</w>",
    "bad",
    "گلی</w>",
    "ہونی</w>",
    "خوف</w>",
    "خون</w>",
    "jay</w>",
    "روح</w>",
    "sli",
    "کینی",
    "ٹیم</w>",
    "cor",
    "keh</w>",
    "anay</w>",
    "dete</w>",
    "who</w>",
    "aala</w>",
    "بوڑ",
    "cle</w>",
    "مرہ</w>",
    "نوجو",
    "سفی",
    "اسٹور</w>",
    "soo</w>",
    "جنہوں</w>",
    "ملتی</w>",
    "مانہ</w>",
    "hogaya</w>",
    "بیٹے</w>",
    "ٹاپ</w>",
    "نسل</w>",
    "تحریری</w>",
    "گھنٹہ</w>",
    "شوہر</w>",
    "اخلا",
    "alag</w>",
    "market</w>",
    "بلیک</w>",
    "pooo",
    "پارٹی</w>",
    "bajaye</w>",
    "phr</w>",
    "dafa</w>",
    "اسلام</w>",
    "wazan</w>",
    "ڈیزل</w>",
    "zindagi</w>",
    "عوام</w>",
    "madad</w>",
    "مغر",
    "contro",
    "item</w>",
    "موضوع</w>",
    "پیروی</w>",
    "shopping</w>",
    "عرصے</w>",
    "tasveer</w>",
    "سوال</w>",
    "تاریخی</w>",
    "gharri</w>",
    "خصوصیات</w>",
    "وضاحت</w>",
    "baarey</w>",
    "وق</w>",
    "مص",
    "پن",
    "at",
    "tk</w>",
    "یو</w>",
    "حت",
    "iq",
    "زت</w>",
    "آن</w>",
    "ڈھ",
    "ds</w>",
    "ڑوں</w>",
    "mis",
    "maa</w>",
    "کیل</w>",
    "wee",
    "bee",
    "سات",
    "tan",
    "ویا</w>",
    "bol</w>",
    "bal</w>",
    "yen</w>",
    "کرنی</w>",
    "tee</w>",
    "اہل</w>",
    "ٹام</w>",
    "kam</w>",
    "جاپ",
    "پیاری</w>",
    "her</w>",
    "kaar</w>",
    "معذ",
    "aati</w>",
    "سوایے</w>",
    "mor",
    "امات</w>",
    "آرہا</w>",
    "صورت</w>",
    "haqee",
    "فلمایا</w>",
    "set</w>",
    "ایکس</w>",
    "بھرا</w>",
    "siya",
    "تصا",
    "لایق</w>",
    "راست",
    "قایم</w>",
    "والد</w>",
    "maza</w>",
    "ووٹ</w>",
    "ger</w>",
    "camera</w>",
    "vie",
    "پہلو</w>",
    "andar</w>",
    "***</w>",
    "نفسی",
    "pura</w>",
    "halka</w>",
    "blu",
    "dosra</w>",
    "saray</w>",
    "films</w>",
    "delivery</w>",
    "اہلکار</w>",
    "fied</w>",
    "dobarah</w>",
    "مارشل</w>",
    "please</w>",
    "ماحول</w>",
    "mazboot</w>",
    "bakwas</w>",
    "موافقت</w>",
    "agarchay</w>",
    "hamesha</w>",
    "نوجوانوں</w>",
    "حتمی</w>",
    "تصاویر</w>",
    "مخ",
    "یل</w>",
    "نن",
    "گن",
    "نز",
    "bu</w>",
    "id</w>",
    "دت</w>",
    "ws</w>",
    "حص</w>",
    "پے</w>",
    "تیں</w>",
    "این",
    "ایم",
    "انو",
    "ist</w>",
    "qis",
    "کیٹ</w>",
    "کیج</w>",
    "سکا</w>",
    "fee",
    "اتف",
    "میچ</w>",
    "taq",
    "tai",
    "rah</w>",
    "lai",
    "lan",
    "سان</w>",
    "کان</w>",
    "ستی</w>",
    "اچی</w>",
    "din",
    "lya</w>",
    "وسی",
    "karachi</w>",
    "رہو</w>",
    "ڈین</w>",
    "lti</w>",
    "shee",
    "raat</w>",
    "تیس",
    "sur",
    "کاروں</w>",
    "جہن",
    "dio</w>",
    "درد</w>",
    "ستاروں</w>",
    "بھر",
    "ورات</w>",
    "shika",
    "گرد</w>",
    "رکھتا</w>",
    "نگر</w>",
    "صوتی</w>",
    "فران",
    "چلتی</w>",
    "achha</w>",
    "achh</w>",
    "tru",
    "they</w>",
    "ہدایتک",
    "گریز</w>",
    "vide",
    "choo",
    "ffe",
    "پورے</w>",
    "نگاہ</w>",
    "toot</w>",
    "poori</w>",
    "رکھا</w>",
    "آباد</w>",
    "ہیرو</w>",
    "جیمز</w>",
    "ller</w>",
    "رابرٹ</w>",
    "سیگل</w>",
    "بھیانک</w>",
    "qarar</w>",
    "قطعی</w>",
    "dekhaya</w>",
    "zyada</w>",
    "sasta</w>",
    "dhoney</w>",
    "really</w>",
    "پذی",
    "مریم</w>",
    "سلوک</w>",
    "شیطان</w>",
    "رچرڈ</w>",
    "کیرییر</w>",
    "یادگار</w>",
    "متعدد</w>",
    "سراسر</w>",
    "مشتمل</w>",
    "راستہ</w>",
    "satisfied</w>",
    "تصورات</w>",
    "ہدایتکاری</w>",
    "fo",
    "وا</w>",
    "tm",
    "فہ</w>",
    "بچ</w>",
    "ڈو</w>",
    "خت</w>",
    "ہس",
    "قوں</w>",
    "چان",
    "ame",
    "اکی",
    "sad</w>",
    "tag</w>",
    "نان</w>",
    "فور",
    "wal</w>",
    "ted</w>",
    "jae</w>",
    "jan",
    "jana</w>",
    "سیسی</w>",
    "نیز</w>",
    "dan</w>",
    "ڈال</w>",
    "don</w>",
    "sion</w>",
    "kri",
    "bani</w>",
    "موجو",
    "ردی</w>",
    "dun",
    "پیٹر</w>",
    "sub",
    "zaya</w>",
    "shar",
    "yab</w>",
    "اوس</w>",
    "پیچی",
    "ser</w>",
    "soch</w>",
    "بھری</w>",
    "سوچنا</w>",
    "شاٹ",
    "نامہ</w>",
    "aisi</w>",
    "مقام</w>",
    "شرمن",
    "wer</w>",
    "تکنی",
    "ہنستے</w>",
    "اٹھانے</w>",
    "recom",
    "بتایا</w>",
    "الجھ",
    "سختی</w>",
    "رومانس</w>",
    "جارج</w>",
    "light</w>",
    "سلیم</w>",
    "سنجیدگی</w>",
    "انھیں</w>",
    "خاتمہ</w>",
    "kapray</w>",
    "جدید</w>",
    "card</w>",
    "سیدھے</w>",
    "پھینک</w>",
    "تبصرے</w>",
    "برسوں</w>",
    "کرسمس</w>",
    "change</w>",
    "اوسط</w>",
    "آنکھوں</w>",
    "نمبر</w>",
    "چہرے</w>",
    "karein</w>",
    "ڈھونڈ",
    "class</w>",
    "جماعت</w>",
    "poooray</w>",
    "جہنم</w>",
    "پذیری</w>",
    "شاٹس</w>",
    "ay",
    "فک</w>",
    "ut",
    "زم</w>",
    "رل</w>",
    "mb",
    "ظم</w>",
    "صف</w>",
    "tv</w>",
    "جم</w>",
    "ثق",
    "haa</w>",
    "قای",
    "پور</w>",
    "باس</w>",
    "کرکے</w>",
    "jin</w>",
    "گار",
    "baa",
    "ish",
    "maq",
    "شہو",
    "کھا</w>",
    "naz",
    "میر</w>",
    "سنا",
    "lab</w>",
    "گییں</w>",
    "صور",
    "صان</w>",
    "yehi</w>",
    "بلی</w>",
    "tes</w>",
    "bhu",
    "jane</w>",
    "les</w>",
    "den</w>",
    "کہتا</w>",
    "کاری</w>",
    "کیاں</w>",
    "جینی",
    "سورا",
    "ion</w>",
    "aye</w>",
    "رہنا</w>",
    "رہتی</w>",
    "یاف",
    "صدی</w>",
    "ort</w>",
    "ori</w>",
    "مزہ</w>",
    "apko</w>",
    "issu",
    "کارا</w>",
    "yaqee",
    "چوری</w>",
    "sale</w>",
    "بڑھ</w>",
    "چھونے</w>",
    "wahan</w>",
    "چمک",
    "کلب</w>",
    "iyan</w>",
    "hahah</w>",
    "nik",
    "shadi</w>",
    "بچانے</w>",
    "چونکہ</w>",
    "میٹر",
    "مارا</w>",
    "قول</w>",
    "mien</w>",
    "شادی</w>",
    "اشت",
    "جرم</w>",
    "star</w>",
    "تاریک</w>",
    "انتظام</w>",
    "لکڑی</w>",
    "کنارے</w>",
    "گزر",
    "کرسٹو",
    "دوسروں</w>",
    "bhej",
    "comfor",
    "سیاہ</w>",
    "khel",
    "جایز</w>",
    "musta",
    "پیچھا</w>",
    "tabdee",
    "خوفزدہ</w>",
    "khareedne</w>",
    "khareedna</w>",
    "شاٹ</w>",
    "توہین</w>",
    "balkay</w>",
    "ایوارڈ</w>",
    "zaiqa</w>",
    "mausam</w>",
    "جادو</w>",
    "mojood</w>",
    "برطانوی</w>",
    "عریانی</w>",
    "چندے</w>",
    "نفسیاتی</w>",
    "khushbu</w>",
    "اتفاق</w>",
    "کراچی</w>",
    "kria</w>",
    "نقصان</w>",
    "یافتہ</w>",
    "ہا",
    "pi</w>",
    "ij",
    "طی",
    "بڑ</w>",
    "لح",
    "zz</w>",
    "yn</w>",
    "pa</w>",
    "hah",
    "ایچ</w>",
    "maa",
    "laa",
    "ریڈ</w>",
    "tab</w>",
    "اور",
    "لاتا</w>",
    "دیکھے</w>",
    "tez</w>",
    "فرو",
    "سکیں</w>",
    "بیت</w>",
    "نیو</w>",
    "نیے</w>",
    "iyon</w>",
    "kun</w>",
    "sun",
    "احم",
    "star",
    "کاررو",
    "yad</w>",
    "بناتی</w>",
    "بوٹ</w>",
    "چیت</w>",
    "sey</w>",
    "cheeze</w>",
    "but",
    "کلچ</w>",
    "سوچتا</w>",
    "pehna</w>",
    "ترکی</w>",
    "رکھنا</w>",
    "hogi</w>",
    "para</w>",
    "اینڈ</w>",
    "waisa</w>",
    "jitna</w>",
    "haath</w>",
    "thek</w>",
    "show</w>",
    "کیبل</w>",
    "رقص</w>",
    "choti</w>",
    "pers</w>",
    "نواز</w>",
    "نکال",
    "jee</w>",
    "kerne</w>",
    "قایل</w>",
    "سستے</w>",
    "سسپ",
    "سالہ</w>",
    "grap",
    "inhen</w>",
    "داخ",
    "نایٹ</w>",
    "ful</w>",
    "ugh</w>",
    "out</w>",
    "تبصرہ</w>",
    "faid</w>",
    "zayada</w>",
    "طاقت</w>",
    "number</w>",
    "خاندانی</w>",
    "نظرانداز</w>",
    "bsite</w>",
    "حملہ</w>",
    "khayal</w>",
    "جانوروں</w>",
    "غضب</w>",
    "result</w>",
    "chamray</w>",
    "احترام</w>",
    "tareeqay</w>",
    "uncle</w>",
    "ہاوس</w>",
    "نہ",
    "اظ",
    "اک</w>",
    "چا</w>",
    "ir",
    "up",
    "aj</w>",
    "tm</w>",
    "آس</w>",
    "رن</w>",
    "hu</w>",
    "ضہ</w>",
    "زوں</w>",
    "ریت</w>",
    "لتا</w>",
    "واں</w>",
    "ٹھا</w>",
    "زار</w>",
    "یار</w>",
    "nan</w>",
    "شرا",
    "ویے</w>",
    "laz",
    "الو",
    "bag</w>",
    "اچھ",
    "fin",
    "tey</w>",
    "اہٹ</w>",
    "کہوں</w>",
    "ٹرو",
    "رونی</w>",
    "روج</w>",
    "سیکھ",
    "lid</w>",
    "pas</w>",
    "لایی</w>",
    "leye</w>",
    "اجا",
    "نکل</w>",
    "نییر</w>",
    "rani</w>",
    "pani</w>",
    "بنایے</w>",
    "ٹین</w>",
    "سات</w>",
    "پرست</w>",
    "remo",
    "ling</w>",
    "now</w>",
    "dikha",
    "دردی</w>",
    "فہم</w>",
    "راکش",
    "فین</w>",
    "کتنے</w>",
    "teen</w>",
    "chnay</w>",
    "خانہ</w>",
    "new</w>",
    "طاہر</w>",
    "انٹر",
    "lagi</w>",
    "fais",
    "فرینڈ</w>",
    "بادی</w>",
    "اقد",
    "dast",
    "دھما",
    "ction</w>",
    "پاپ</w>",
    "کھینچ",
    "توڑ</w>",
    "faro",
    "سمجھتا</w>",
    "سمجھتے</w>",
    "dobara</w>",
    "halki</w>",
    "لہجے</w>",
    "hissa</w>",
    "جتنی</w>",
    "jald</w>",
    "natee",
    "maloo",
    "logo</w>",
    "لکھنے</w>",
    "سلسلے</w>",
    "سارا</w>",
    "samaan</w>",
    "طاقت",
    "معاملے</w>",
    "print</w>",
    "بخش</w>",
    "آزاد</w>",
    "شکست</w>",
    "fabri",
    "نادر</w>",
    "پچھلے</w>",
    "doosri</w>",
    "wapis</w>",
    "ڈراونا</w>",
    "slim</w>",
    "کیمرہ</w>",
    "سفید</w>",
    "معذرت</w>",
    "پیچیدہ</w>",
    "comfortable</w>",
    "گڑبڑ</w>",
    "احمق</w>",
    "سسپنس</w>",
    "safaid</w>",
    "website</w>",
    "اجازت</w>",
    "ول",
    "ای</w>",
    "حو",
    "ak</w>",
    "ys</w>",
    "by</w>",
    "آر</w>",
    "ایج</w>",
    "کرس</w>",
    "وار",
    "دیوں</w>",
    "کیو</w>",
    "ssa",
    "است</w>",
    "آمی",
    "آنا</w>",
    "عنا",
    "الج",
    "nta</w>",
    "pta</w>",
    "wab</w>",
    "bata</w>",
    "مون</w>",
    "inta",
    "پین</w>",
    "کیری</w>",
    "ملے</w>",
    "روش",
    "رون</w>",
    "ماگ",
    "اگلے</w>",
    "سیم</w>",
    "پانی</w>",
    "جدو",
    "inhe</w>",
    "مایی</w>",
    "ill</w>",
    "کلو",
    "kon</w>",
    "kaat</w>",
    "ail</w>",
    "red</w>",
    "bait",
    "پایے</w>",
    "پسندی</w>",
    "صاح",
    "tail</w>",
    "وٹر</w>",
    "sub</w>",
    "ہنر</w>",
    "note</w>",
    "insha",
    "shaa",
    "jaga</w>",
    "نوٹ</w>",
    "ہوجایے</w>",
    "منشی",
    "فون</w>",
    "پانے</w>",
    "fit</w>",
    "بینڈ</w>",
    "افسر",
    "اییوں</w>",
    "خالی</w>",
    "ڈینس</w>",
    "ہماری</w>",
    "تھیم</w>",
    "lagti</w>",
    "mst",
    "back</w>",
    "fect</w>",
    "likha</w>",
    "سازی</w>",
    "شاہ</w>",
    "بہرح",
    "کیمرا</w>",
    "elo</w>",
    "uran</w>",
    "پیدا",
    "usool</w>",
    "spray</w>",
    "خاموش</w>",
    "آرام</w>",
    "khid",
    "skta</w>",
    "ولیم</w>",
    "جمع</w>",
    "چاہے</w>",
    "hammad</w>",
    "جایزہ</w>",
    "جایزے</w>",
    "جہد</w>",
    "تخلیق</w>",
    "فنت",
    "سنگین</w>",
    "معاون</w>",
    "تناو</w>",
    "القادری</w>",
    "معروف</w>",
    "تباہ</w>",
    "کہانیاں</w>",
    "sound</w>",
    "پروڈیوسر</w>",
    "ایماند",
    "video</w>",
    "schoo",
    "matlab</w>",
    "shukria</w>",
    "کارروایی</w>",
    "اظہار</w>",
    "عروج</w>",
    "جونییر</w>",
    "عناصر</w>",
    "shaamil</w>",
    "منشیات</w>",
    "mst3",
    "بہرحال</w>",
    "پیداوار</w>",
    "school</w>",
    "سٹ",
    "op",
    "صد",
    "ul</w>",
    "gy</w>",
    "زخ",
    "ڈے</w>",
    "اگ</w>",
    "پہ</w>",
    "غی</w>",
    "اظ</w>",
    "حل</w>",
    "ﮐﯽ</w>",
    "bo</w>",
    "بح</w>",
    "yy</w>",
    "fe</w>",
    "ﮐﮯ</w>",
    "بای",
    "بنے</w>",
    "لار",
    "men</w>",
    "قدی",
    "mah",
    "کین",
    "use</w>",
    "bai",
    "سلی</w>",
    "چلی</w>",
    "ink</w>",
    "شام</w>",
    "hum",
    "اپی",
    "oooo",
    "kara",
    "kara</w>",
    "gae</w>",
    "hel",
    "نیوی",
    "نیر</w>",
    "سوا</w>",
    "hid</w>",
    "non</w>",
    "بندو",
    "معط",
    "افس",
    "لنگ</w>",
    "karni</w>",
    "chand</w>",
    "key</w>",
    "fro",
    "مات</w>",
    "الات</w>",
    "bil</w>",
    "کررہا</w>",
    "zat</w>",
    "کارڈ</w>",
    "بچی</w>",
    "انتق",
    "tice</w>",
    "dost</w>",
    "ہمت</w>",
    "milta</w>",
    "vera",
    "بھاری</w>",
    "buy</w>",
    "کلاس</w>",
    "ملبو",
    "کررہے</w>",
    "سوچتے</w>",
    "neh</w>",
    "shuda</w>",
    "گرل</w>",
    "سٹر",
    "چوس</w>",
    "مارک</w>",
    "چھڑ",
    "آدھا</w>",
    "poun",
    "سایی",
    "ادایی",
    "nut</w>",
    "get</w>",
    "case</w>",
    "کیمس",
    "rust</w>",
    "اسٹیو</w>",
    "cation</w>",
    "خصوصیت</w>",
    "متوقع</w>",
    "kamal</w>",
    "tive</w>",
    "گزار",
    "بلیو</w>",
    "عقل</w>",
    "فوٹو</w>",
    "بچپن</w>",
    "rakhta</w>",
    "چلانے</w>",
    "شدید</w>",
    "اچانک</w>",
    "paida</w>",
    "dikhaya</w>",
    "نمایش</w>",
    "وزیر</w>",
    "اسٹیفن</w>",
    "****</w>",
    "گرفت</w>",
    "تخلیقی</w>",
    "کالج</w>",
    "sind",
    "محروم</w>",
    "color</w>",
    "ٹھنڈا</w>",
    "faraham</w>",
    "پڑھنے</w>",
    "گہری</w>",
    "susti</w>",
    "برقرار</w>",
    "free</w>",
    "لانگ</w>",
    "khilo",
    "unhein</w>",
    "sahih</w>",
    "rangon</w>",
    "مغربی</w>",
    "فاروق</w>",
    "ساتھی</w>",
    "bekaar</w>",
    "shikayat</w>",
    "فرانسیسی</w>",
    "اعظم</w>",
    "لڑکیاں</w>",
    "issue</w>",
    "کرسٹوفر</w>",
    "fabric</w>",
    "روشنی</w>",
    "جدوجہد</w>",
    "فنتاسی</w>",
    "لحاظ</w>",
    "خیالات</w>",
    "کیمسٹری</w>",
    "durust</w>",
    "اذ",
    "قر",
    "tr",
    "ڈس</w>",
    "go</w>",
    "sy",
    "rt</w>",
    "اء</w>",
    "oo</w>",
    "ھم</w>",
    "سڑ",
    "کک</w>",
    "نای",
    "مور</w>",
    "کرا</w>",
    "daa",
    "nae</w>",
    "باد",
    "اداس</w>",
    "اسٹ</w>",
    "ram</w>",
    "گیم</w>",
    "ٹور",
    "مول",
    "دیکھوں</w>",
    "طرز</w>",
    "kai</w>",
    "len",
    "جیت</w>",
    "game",
    "pam",
    "pais",
    "pan</w>",
    "pay</w>",
    "لیاں</w>",
    "پایی</w>",
    "dat</w>",
    "تال</w>",
    "zon</w>",
    "skin</w>",
    "واقع</w>",
    "ڈینی</w>",
    "شیر</w>",
    "hani</w>",
    "end</w>",
    "بلا</w>",
    "دھی",
    "ونس</w>",
    "tikha",
    "kho</w>",
    "لگتی</w>",
    "tarha</w>",
    "miyar</w>",
    "mode",
    "aza",
    "بچیں</w>",
    "خاص",
    "چینی</w>",
    "بالغ</w>",
    "jahan</w>",
    "مرکو",
    "کشش</w>",
    "dua</w>",
    "جانب</w>",
    "جانچ</w>",
    "sor</w>",
    "some</w>",
    "پڑی</w>",
    "لڑکیوں</w>",
    "ters</w>",
    "لگانے</w>",
    "kry</w>",
    "shamil</w>",
    "ڈیوس</w>",
    "پرانا</w>",
    "نما</w>",
    "زعہ</w>",
    "آدھی</w>",
    "علاج</w>",
    "thy</w>",
    "خیالی</w>",
    "تحال</w>",
    "layi</w>",
    "بمشکل</w>",
    "اشارہ</w>",
    "سامان</w>",
    "ہفت",
    "آرٹس</w>",
    "abi</w>",
    "بجلی</w>",
    "ڈالر</w>",
    "حالات</w>",
    "کنبہ</w>",
    "روشن</w>",
    "meez</w>",
    "لمحہ</w>",
    "sari</w>",
    "معیاری</w>",
    "cket</w>",
    "pakistani</w>",
    "جونز</w>",
    "halkay</w>",
    "مثبت</w>",
    "ڈرایی",
    "کمپی",
    "تبدیلی</w>",
    "لفظ",
    "کرکٹ</w>",
    "perfor",
    "ہندوست",
    "masool</w>",
    "گاڑی</w>",
    "شاذ</w>",
    "muft</w>",
    "siyat</w>",
    "بدبو</w>",
    "deliver</w>",
    "screen</w>",
    "taleem</w>",
    "باکس</w>",
    "منتظر</w>",
    "mangwaya</w>",
    "مالک</w>",
    "مسیلہ</w>",
    "مزاج</w>",
    "دھوکہ</w>",
    "count</w>",
    "منصوبہ</w>",
    "تفصیل</w>",
    "شریک</w>",
    "باتیں</w>",
    "لباس</w>",
    "yaqeen</w>",
    "بربادی</w>",
    "طاقتور</w>",
    "نتایج</w>",
    "ماگرا",
    "صاحب</w>",
    "perfect</w>",
    "mst3k</w>",
    "صورتحال</w>",
    "کب</w>",
    "وع",
    "ea",
    "eh</w>",
    "تل",
    "ie</w>",
    "طل",
    "ue</w>",
    "اڑ</w>",
    "nu</w>",
    "پل</w>",
    "زر",
    "بم</w>",
    "ایڈ</w>",
    "مکر",
    "دان",
    "لیو</w>",
    "گلی",
    "med</w>",
    "ریو</w>",
    "کیو",
    "ہات",
    "میڈ",
    "tal</w>",
    "taf",
    "sala",
    "lan</w>",
    "gla",
    "یور",
    "inn</w>",
    "خود",
    "اکر</w>",
    "karke</w>",
    "sil",
    "داری</w>",
    "جیری</w>",
    "سمن",
    "پال</w>",
    "کردیں</w>",
    "اوی</w>",
    "whi",
    "mahi",
    "کام",
    "پرہ",
    "معہ</w>",
    "gri",
    "chala",
    "جات</w>",
    "ڈنگ</w>",
    "heed</w>",
    "ٹیک",
    "run",
    "uni",
    "nati",
    "واقعات</w>",
    "ایڈی</w>",
    "کھڑا</w>",
    "chala</w>",
    "sala</w>",
    "اندر</w>",
    "zana</w>",
    "zab</w>",
    "متنا",
    "مہم</w>",
    "نوع",
    "sen",
    "ساز</w>",
    "اسٹو",
    "mile</w>",
    "سنبھ",
    "yaad</w>",
    "اجن",
    "aash</w>",
    "پوای",
    "pehn",
    "jaisi</w>",
    "قسط</w>",
    "قسمت</w>",
    "مہار",
    "دکھایے</w>",
    "pie",
    "paisa</w>",
    "rakh</w>",
    "لہجہ</w>",
    "مسکر",
    "ٹیسٹ</w>",
    "compa",
    "مذہ",
    "دہر",
    "حالت</w>",
    "پروگرا",
    "لکھی</w>",
    "سمجھنے</w>",
    "اعتبار</w>",
    "muqab",
    "khoo",
    "گھروں</w>",
    "taiz</w>",
    "جارہی</w>",
    "میوزی",
    "کیمپ</w>",
    "علم</w>",
    "جلدی</w>",
    "ہوجاییں</w>",
    "مواد</w>",
    "supp",
    "samaj",
    "نیند</w>",
    "ginal</w>",
    "lock</w>",
    "پہنچا</w>",
    "lagay</w>",
    "فیملی</w>",
    "work</w>",
    "satke</w>",
    "مردوں</w>",
    "دوچار</w>",
    "cise</w>",
    "chalta</w>",
    "بروس</w>",
    "دھرنے</w>",
    "جسم</w>",
    "kehna</w>",
    "فلیٹ</w>",
    "اطال",
    "آسٹریلیا</w>",
    "تعداد</w>",
    "baghair</w>",
    "khushi</w>",
    "ٹوکری</w>",
    "جاپانی</w>",
    "مقامات</w>",
    "siyah</w>",
    "barqarar</w>",
    "تکنیکی</w>",
    "تسلیم</w>",
    "tabdeel</w>",
    "graphi",
    "داخل</w>",
    "ہمدردی</w>",
    "راکشس</w>",
    "maloom</w>",
    "muslim</w>",
    "الجھا</w>",
    "khidmat</w>",
    "قدیم</w>",
    "اپیل</w>",
    "pouncha</w>",
    "اداییگی</w>",
    "ماگرافی</w>",
    "mohazab</w>",
    "نوعیت</w>",
    "talaash</w>",
    "original</w>",
    "یر",
    "رن",
    "رد</w>",
    "ٹھ</w>",
    "گذ",
    "ڈس",
    "خر</w>",
    "کھ</w>",
    "قب",
    "شے</w>",
    "لٹ</w>",
    "مو</w>",
    "yr</w>",
    "lb</w>",
    "رخ</w>",
    "شر</w>",
    "ﺮﯾ",
    "ﺍﺳ",
    "زر</w>",
    "nh</w>",
    "غب</w>",
    "کیں</w>",
    "hat",
    "hak</w>",
    "hab</w>",
    "has</w>",
    "زور</w>",
    "ارت</w>",
    "ary</w>",
    "raa",
    "mei</w>",
    "بتا</w>",
    "mam",
    "واز",
    "sal</w>",
    "pho",
    "ram",
    "ورز</w>",
    "پال",
    "hata</w>",
    "gta</w>",
    "bai</w>",
    "کھلا",
    "لاز",
    "کیلی</w>",
    "نمو",
    "موڈ</w>",
    "jaye",
    "روز</w>",
    "باز</w>",
    "بروں</w>",
    "منط",
    "gan",
    "khe</w>",
    "نیٹ</w>",
    "سونے</w>",
    "گلو",
    "پھو",
    "qai",
    "beta</w>",
    "ایڈی",
    "جاوں</w>",
    "ونگ</w>",
    "جوم</w>",
    "جولی</w>",
    "khee",
    "ڈون",
    "انات</w>",
    "ساح",
    "maat</w>",
    "iyaat</w>",
    "date</w>",
    "nch</w>",
    "مما",
    "بوایے</w>",
    "dle</w>",
    "چیک</w>",
    "چیخ</w>",
    "lol</w>",
    "dikh",
    "قدر",
    "nce</w>",
    "انکش",
    "kir",
    "kiun</w>",
    "فارمو",
    "جاننے</w>",
    "اسٹر",
    "ves</w>",
    "jatay</w>",
    "پڑھ</w>",
    "squa",
    "inter",
    "ملکی</w>",
    "kash</w>",
    "moni",
    "net</w>",
    "سکون</w>",
    "رکھتی</w>",
    "رکھے</w>",
    "esa</w>",
    "fan</w>",
    "سینڈ",
    "part",
    "پوچھ",
    "چلتے</w>",
    "aisay</w>",
    "uske</w>",
    "gene",
    "wood</w>",
    "سامنا</w>",
    "مارٹن</w>",
    "تلافی</w>",
    "آییں</w>",
    "ڈالا</w>",
    "ڈالنے</w>",
    "لمحے</w>",
    "پینٹ</w>",
    "warna</w>",
    "کھاتا</w>",
    "نشانہ</w>",
    "onal</w>",
    "asse",
    "feed</w>",
    "mazeed</w>",
    "لنگڑے</w>",
    "سیزن</w>",
    "taakay</w>",
    "baqi</w>",
    "imran</w>",
    "تسلس",
    "ہلکے</w>",
    "پیارا</w>",
    "ڈیزاین</w>",
    "vote</w>",
    "reeban</w>",
    "عوامی</w>",
    "محمد</w>",
    "colour</w>",
    "فضل</w>",
    "منتقل</w>",
    "تباہی</w>",
    "ناطے</w>",
    "فیسٹی",
    "timing</w>",
    "اعتراف</w>",
    "ذہانت</w>",
    "ٹھوس</w>",
    "تھامس</w>",
    "بیٹھنے</w>",
    "paaya</w>",
    "چھوڑیں</w>",
    "leather</w>",
    "revie",
    "blue</w>",
    "روپے</w>",
    "وسیع</w>",
    "ameri",
    "نصف</w>",
    "سنانے</w>",
    "سوراخ</w>",
    "معقول</w>",
    "remote</w>",
    "dastyab</w>",
    "افسردہ</w>",
    "صبح</w>",
    "baichnay</w>",
    "پنیر</w>",
    "بندوق</w>",
    "overa",
    "مرکوز</w>",
    "مکروہ</w>",
    "پرہیز</w>",
    "جمعہ</w>",
    "میوزیکل</w>",
    "راغب</w>",
    "لازمی</w>",
    "مماث",
    "تسلسل</w>",
    "فیسٹیول</w>",
    "overall</w>",
    "وت</w>",
    "bh",
    "ib",
    "عث</w>",
    "mp",
    "گس</w>",
    "kt</w>",
    "ib</w>",
    "ps",
    "mn</w>",
    "بٹ</w>",
    "ub",
    "شع",
    "ﮐﻮ</w>",
    "انٹ</w>",
    "ٹار",
    "شار",
    "پلی",
    "لیوں</w>",
    "دری",
    "isy</w>",
    "sma",
    "واب",
    "hoo</w>",
    "میک",
    "میٹ</w>",
    "ناو",
    "isla",
    "ڈان</w>",
    "عال",
    "الز",
    "boo</w>",
    "انسی</w>",
    "mum",
    "مون",
    "teh",
    "dhu",
    "گری</w>",
    "jab",
    "خطر",
    "nana</w>",
    "سیل</w>",
    "سننے</w>",
    "ارادہ</w>",
    "برت",
    "hee</w>",
    "dal</w>",
    "dab",
    "کردے</w>",
    "کواس</w>",
    "son</w>",
    "ope",
    "res</w>",
    "bre",
    "ber",
    "قابو</w>",
    "rif</w>",
    "taar</w>",
    "pti</w>",
    "ذیر</w>",
    "nor",
    "bro",
    "حکم</w>",
    "hari</w>",
    "apki</w>",
    "miyon</w>",
    "bekar</w>",
    "اڑا</w>",
    "waza",
    "بچت</w>",
    "shah</w>",
    "بدبو",
    "لایا</w>",
    "nga</w>",
    "test</w>",
    "most</w>",
    "tarhan</w>",
    "use",
    "cal",
    "فیس</w>",
    "khus",
    "ضاد</w>",
    "atay</w>",
    "کتوں</w>",
    "نکس</w>",
    "عکس</w>",
    "فکس</w>",
    "بھاگ",
    "جنت</w>",
    "tuk",
    "pehla</w>",
    "pasan",
    "کھانے</w>",
    "ٹرس</w>",
    "فرار</w>",
    "داست",
    "اینڈ",
    "pare",
    "party</w>",
    "اسکتے</w>",
    "darmiy",
    "dard</w>",
    "pohan",
    "try</w>",
    "بورڈ</w>",
    "مانگ",
    "numa",
    "waisay</w>",
    "jus",
    "اڑی</w>",
    "can</w>",
    "معاش",
    "گریڈ</w>",
    "gair</w>",
    "رابن</w>",
    "paish</w>",
    "آیر",
    "گہر",
    "behter</w>",
    "آنس",
    "zikar</w>",
    "gir",
    "حالیہ</w>",
    "fea",
    "شوز</w>",
    "rakha</w>",
    "نکلا</w>",
    "غلطی",
    "ons</w>",
    "bhar",
    "thing</w>",
    "head",
    "چندہ</w>",
    "spr",
    "your</w>",
    "samj",
    "خریدیں</w>",
    "shoes</w>",
    "toota</w>",
    "مجموعہ</w>",
    "stand</w>",
    "ذہنی</w>",
    "india</w>",
    "chine</w>",
    "bool</w>",
    "جارہا</w>",
    "چھوڑنے</w>",
    "لنچ</w>",
    "load</w>",
    "جسم",
    "device</w>",
    "لرز</w>",
    "nawaz</w>",
    "ahcha</w>",
    "اہلیہ</w>",
    "یادوں</w>",
    "سینما</w>",
    "مفت</w>",
    "intehai</w>",
    "موسم</w>",
    "تنہا</w>",
    "behad</w>",
    "minu",
    "فاکس</w>",
    "خاندان</w>",
    "نظریہ</w>",
    "haftay</w>",
    "khusus",
    "اصلیت</w>",
    "cutting</w>",
    "جاسوس</w>",
    "روکنے</w>",
    "ﻣﯿﮟ</w>",
    "لاینیں</w>",
    "سیکنڈ</w>",
    "کینیڈا</w>",
    "haqeeqat</w>",
    "احسان</w>",
    "چاند</w>",
    "chawal</w>",
    "اکٹھا</w>",
    "wapas</w>",
    "hussa",
    "muhammad</w>",
    "نیویارک</w>",
    "sindh</w>",
    "khilona</w>",
    "intikha",
    "model</w>",
    "کمپیوٹر</w>",
    "performan",
    "mahinay</w>",
    "مہارت</w>",
    "پروگرام</w>",
    "اطالوی</w>",
    "graphics</w>",
    "سینماگرافی</w>",
    "ہجوم</w>",
    "انکشاف</w>",
    "monitor</w>",
    "باعث</w>",
    "پھانسی</w>",
    "khususiyaat</w>",
    "hussain</w>",
    "زح",
    "چن</w>",
    "py",
    "تت",
    "ul",
    "چہ</w>",
    "رش",
    "ss",
    "صح",
    "kb</w>",
    "جھ</w>",
    "اج",
    "مپ</w>",
    "ok</w>",
    "سس</w>",
    "اط</w>",
    "ٹف",
    "lv",
    "فو</w>",
    "ﺎﻧ",
    "ﮨﮯ</w>",
    "شیں</w>",
    "hal</w>",
    "شاور</w>",
    "اوں</w>",
    "ard</w>",
    "chi</w>",
    "لیتا</w>",
    "nat</w>",
    "حاد",
    "eeb</w>",
    "فات",
    "اتر</w>",
    "کمی",
    "میو</w>",
    "raf",
    "tra",
    "ٹرا",
    "راہ</w>",
    "ناچ",
    "ورا</w>",
    "فال",
    "الب</w>",
    "bol",
    "لاگ</w>",
    "حتی</w>",
    "ولی</w>",
    "inka</w>",
    "ghu",
    "دری</w>",
    "میلے</w>",
    "روز",
    "روسی</w>",
    "kat</w>",
    "ale",
    "len</w>",
    "lein</w>",
    "leta</w>",
    "عقی",
    "ded</w>",
    "باپ</w>",
    "بیوں</w>",
    "سنگ</w>",
    "جانی</w>",
    "جیل</w>",
    "جیف</w>",
    "khali",
    "bhe</w>",
    "توق",
    "dil",
    "لون</w>",
    "mon</w>",
    "شکر</w>",
    "kaan</w>",
    "bacha</w>",
    "معا",
    "آگیا</w>",
    "ڈینی",
    "honi</w>",
    "mand</w>",
    "ورنہ</w>",
    "bun",
    "احوں</w>",
    "qam</w>",
    "tiya</w>",
    "ding</w>",
    "zain</w>",
    "کارن</w>",
    "فوری</w>",
    "اولی",
    "لگایا</w>",
    "lga</w>",
    "بالوں</w>",
    "seri",
    "گھری",
    "والہ</w>",
    "ven</w>",
    "حمای",
    "ہیک</w>",
    "range</w>",
    "hahah",
    "apny</w>",
    "کاٹ",
    "معافی</w>",
    "تینوں</w>",
    "دنوں</w>",
    "رنگ",
    "khareedi</w>",
    "asar</w>",
    "لسن</w>",
    "جیسن</w>",
    "parha</w>",
    "parta</w>",
    "سروں</w>",
    "قیاسی</w>",
    "bhar</w>",
    "شرح</w>",
    "شخص",
    "بیٹا</w>",
    "اسٹیج</w>",
    "shop</w>",
    "gir</w>",
    "shape</w>",
    "chotay</w>",
    "سٹن</w>",
    "شبہ</w>",
    "guz",
    "مگر</w>",
    "گھنٹوں</w>",
    "ڈالتا</w>",
    "ٹیلر</w>",
    "نکال</w>",
    "کنبے</w>",
    "پھنس</w>",
    "sara</w>",
    "مصن",
    "فیلڈ</w>",
    "رومانوی</w>",
    "amaz",
    "سستا</w>",
    "walon</w>",
    "umda</w>",
    "خبر</w>",
    "hogaye</w>",
    "نشان</w>",
    "انیوں</w>",
    "progra",
    "شوٹنگ</w>",
    "deegar</w>",
    "dhoo",
    "پکڑ</w>",
    "high</w>",
    "تجربے</w>",
    "پتلی</w>",
    "کھینچ</w>",
    "ایرک</w>",
    "hahahahaha</w>",
    "نمایاں</w>",
    "مبارک</w>",
    "dekhnay</w>",
    "شروعات</w>",
    "بمقابلہ</w>",
    "cover</w>",
    "وسط</w>",
    "آنکھیں</w>",
    "bott",
    "جنون</w>",
    "ghantay</w>",
    "large</w>",
    "اقوا",
    "والدین</w>",
    "جاسکے</w>",
    "sakht</w>",
    "اعتراض</w>",
    "drama</w>",
    "roshan</w>",
    "azeem</w>",
    "andaaz</w>",
    "tila</w>",
    "زوم",
    "کوششوں</w>",
    "لویس</w>",
    "display</w>",
    "nikal",
    "exer",
    "آفس</w>",
    "tawee",
    "qisam</w>",
    "میٹرکس</w>",
    "ناجایز</w>",
    "تربیت</w>",
    "button</w>",
    "walid</w>",
    "faisla</w>",
    "اقدار</w>",
    "nateeja</w>",
    "آمیز</w>",
    "ڈرامایی</w>",
    "دماغی</w>",
    "ملبوسات</w>",
    "paison</w>",
    "kameez</w>",
    "لفظی</w>",
    "company</w>",
    "sahab</w>",
    "ساحل</w>",
    "mufeed</w>",
    "بکواس</w>",
    "پذیر</w>",
    "بدبودار</w>",
    "متضاد</w>",
    "برعکس</w>",
    "machine</w>",
    "intikhab</w>",
    "performance</w>",
    "زحمت</w>",
    "بوجھ</w>",
    "حادث",
    "فاتح</w>",
    "توقعات</w>",
    "گھریلو</w>",
    "حمایت</w>",
    "مصنفین</w>",
    "exercise</w>",
    "taweel</w>",
    "نت</w>",
    "xi",
    "if</w>",
    "وڈ</w>",
    "um</w>",
    "id",
    "خد",
    "ڑھ</w>",
    "xt</w>",
    "زو</w>",
    "ہد</w>",
    "wi</w>",
    "cy</w>",
    "hm</w>",
    "ﺍﻭ",
    "چپ",
    "زل</w>",
    "fy</w>",
    "haz",
    "ٹنے</w>",
    "سکر",
    "ارف</w>",
    "dhi</w>",
    "دیک</w>",
    "ہول",
    "یہو",
    "واک</w>",
    "بہن</w>",
    "san</w>",
    "tah</w>",
    "daur</w>",
    "ٹوی",
    "iyar</w>",
    "عور",
    "ورک</w>",
    "لان</w>",
    "لال",
    "mula",
    "yed</w>",
    "ادتی</w>",
    "jam</w>",
    "jana",
    "روڈ</w>",
    "cle",
    "باب</w>",
    "بیٹ</w>",
    "جیک",
    "جیت",
    "lik</w>",
    "منہ</w>",
    "gal</w>",
    "khan",
    "ghe",
    "ٹرین</w>",
    "arat</w>",
    "araha</w>",
    "سیلو",
    "لووں</w>",
    "سیکسی</w>",
    "پہر</w>",
    "ren</w>",
    "cre",
    "top</w>",
    "chaye</w>",
    "یرت</w>",
    "mujh</w>",
    "ٹین",
    "ٹیج</w>",
    "ندی</w>",
    "سٹی</w>",
    "احی</w>",
    "تیاری</w>",
    "نامز",
    "tari</w>",
    "ging</w>",
    "جوڑا</w>",
    "isliye</w>",
    "کارو",
    "ikh",
    "yan</w>",
    "چیخ",
    "بڑھا</w>",
    "name</w>",
    "send</w>",
    "بدلہ</w>",
    "ghaz</w>",
    "ranty</w>",
    "میکس</w>",
    "کبھ",
    "جنگی</w>",
    "استع",
    "تعال</w>",
    "dge</w>",
    "ridi</w>",
    "پاییں</w>",
    "shukar</w>",
    "گردی</w>",
    "ذمہ</w>",
    "tash",
    "rosh",
    "نگاروں</w>",
    "نگار</w>",
    "pehan",
    "ngi</w>",
    "نڈے</w>",
    "فکشن</w>",
    "انگو",
    "ces</w>",
    "ونما</w>",
    "گرما</w>",
    "mohar</w>",
    "deal</w>",
    "مطال",
    "smar",
    "mari</w>",
    "ڈایی",
    "اییاں</w>",
    "pasee",
    "مدت</w>",
    "zor</w>",
    "zara</w>",
    "kaisay</w>",
    "پیشہ</w>",
    "مسل",
    "فقد",
    "ہنسانے</w>",
    "super</w>",
    "chen</w>",
    "kiunkay</w>",
    "gust</w>",
    "سیریل</w>",
    "zahir</w>",
    "ness</w>",
    "istamal</w>",
    "بتانے</w>",
    "side</w>",
    "baras</w>",
    "جھٹ",
    "نشو",
    "farq</w>",
    "پھل",
    "ڈونا</w>",
    "jese</w>",
    "گزر</w>",
    "ڈرامے</w>",
    "you",
    "درجے</w>",
    "سستی</w>",
    "کیمرے</w>",
    "کمرے</w>",
    "yakee",
    "برابر</w>",
    "banaya</w>",
    "gnal</w>",
    "check</w>",
    "پڑھیں</w>",
    "jooton</w>",
    "zool</w>",
    "شریف</w>",
    "chhoo",
    "match</w>",
    "shakal</w>",
    "saaray</w>",
    "hojati</w>",
    "کولس</w>",
    "ریمیک</w>",
    "pres",
    "جرمن</w>",
    "colle",
    "یونی",
    "ٹایٹل</w>",
    "کولمب",
    "سیدنا</w>",
    "پیسوں</w>",
    "ولیمز</w>",
    "ہلکا</w>",
    "چاہیں</w>",
    "معاملہ</w>",
    "ایڈون",
    "چارلی</w>",
    "گوشت</w>",
    "چینل</w>",
    "ہوچکی</w>",
    "neechay</w>",
    "دہشت</w>",
    "شیکس",
    "munta",
    "ڈانس</w>",
    "محرم</w>",
    "agay</w>",
    "dainay</w>",
    "آسٹریلی",
    "جھوٹ</w>",
    "hawale</w>",
    "نیوز</w>",
    "ques",
    "copy</w>",
    "رسل</w>",
    "انھوں</w>",
    "اہمیت</w>",
    "ہوچکا</w>",
    "ظلم</w>",
    "خلاصہ</w>",
    "mulk</w>",
    "اسکاٹ</w>",
    "چمک</w>",
    "قبول</w>",
    "control</w>",
    "*****</w>",
    "dinon</w>",
    "تیسری</w>",
    "tmaad</w>",
    "موجودگی</w>",
    "شرمندہ</w>",
    "الجھن</w>",
    "mbly</w>",
    "ثقافت</w>",
    "achchhaa</w>",
    "بھرپور</w>",
    "maqsad</w>",
    "mustaq",
    "bhaij",
    "روبوٹ</w>",
    "نہایت</w>",
    "شراب</w>",
    "farokht</w>",
    "jawab</w>",
    "inshallah</w>",
    "ڈبلیو</w>",
    "اذیت</w>",
    "مدھم</w>",
    "cutters</w>",
    "kalayi</w>",
    "وعدہ</w>",
    "rozana</w>",
    "قبضہ</w>",
    "ramzan</w>",
    "squash</w>",
    "tures</w>",
    "garmiyon</w>",
    "گرافکس</w>",
    "گہرایی</w>",
    "جسمانی</w>",
    "افتت",
    "مداحوں</w>",
    "ghatiya</w>",
    "bottle</w>",
    "الاقوا",
    "نزدیک</w>",
    "زیادتی</w>",
    "بصیرت</w>",
    "warranty</w>",
    "کبھار</w>",
    "اشتعال</w>",
    "afridi</w>",
    "roshni</w>",
    "فقدان</w>",
    "august</w>",
    "نشوونما</w>",
    "chhootey</w>",
    "کولمبو</w>",
    "ایڈونچر</w>",
    "شیکسپی",
    "assembly</w>",
    "افتتاحی</w>",
    "الاقوامی</w>",
    "خط",
    "ns</w>",
    "ھو</w>",
    "ڈن",
    "lu</w>",
    "av",
    "صف",
    "دھ</w>",
    "غم",
    "فل</w>",
    "ﮐﺎ</w>",
    "ہای",
    "ایب</w>",
    "سان",
    "ایلی",
    "arhi</w>",
    "وری",
    "کیپ",
    "سپر</w>",
    "مبہ",
    "ادت</w>",
    "میٹ",
    "taa</w>",
    "tasa",
    "taur</w>",
    "rain</w>",
    "rad</w>",
    "ناہ</w>",
    "tne</w>",
    "ظال",
    "sta</w>",
    "box",
    "wat</w>",
    "muha",
    "بلا",
    "پنی</w>",
    "inki</w>",
    "hut</w>",
    "فری</w>",
    "خوب</w>",
    "eya</w>",
    "karwa",
    "karkar",
    "روو",
    "kan</w>",
    "led</w>",
    "ley</w>",
    "dein</w>",
    "lena</w>",
    "ہودہ</w>",
    "بیل</w>",
    "دود</w>",
    "اداکار",
    "bakha",
    "گرین</w>",
    "کون",
    "فکر</w>",
    "بنگ</w>",
    "ماف",
    "tor",
    "ڈیڈ</w>",
    "گست",
    "mend</w>",
    "خلا</w>",
    "جوہر</w>",
    "ٹیل",
    "oopar</w>",
    "pun",
    "isti",
    "ror</w>",
    "احا",
    "late</w>",
    "لگے</w>",
    "ning</w>",
    "حما",
    "لامی</w>",
    "لند",
    "پاو",
    "اوور</w>",
    "بڑوں</w>",
    "متھ</w>",
    "درج</w>",
    "چاروں</w>",
    "آجاتا</w>",
    "kahan</w>",
    "reef</w>",
    "فیل",
    "fan",
    "اسٹار",
    "اسٹنگ</w>",
    "mily</w>",
    "پڑتی</w>",
    "but</w>",
    "بصری</w>",
    "ملنے</w>",
    "wash</w>",
    "تعلی",
    "kage</w>",
    "nge</w>",
    "page</w>",
    "zen</w>",
    "محتر",
    "ترج",
    "نگاری</w>",
    "اعص",
    "فرد</w>",
    "barray</w>",
    "نسن</w>",
    "pait</w>",
    "چھٹ",
    "dece",
    "نٹس</w>",
    "کھڑے</w>",
    "bahar</w>",
    "کرسکتی</w>",
    "دکھاو",
    "real</w>",
    "علامت</w>",
    "mara</w>",
    "waqat</w>",
    "تبہ</w>",
    "uski</w>",
    "منفی</w>",
    "البا</w>",
    "شیلف</w>",
    "قدم</w>",
    "براون</w>",
    "ches</w>",
    "حرف</w>",
    "گفت",
    "بٹس</w>",
    "آییے</w>",
    "less</w>",
    "tifi",
    "meter</w>",
    "ڈالے</w>",
    "نکھ</w>",
    "galat</w>",
    "بظاہر</w>",
    "صفر</w>",
    "tajar",
    "براین</w>",
    "عمروں</w>",
    "جارہے</w>",
    "bandi</w>",
    "bank</w>",
    "thank</w>",
    "poor</w>",
    "کمال</w>",
    "گانوں</w>",
    "urdu</w>",
    "ppy</w>",
    "mutasir</w>",
    "لارڈ</w>",
    "bananay</w>",
    "final</w>",
    "رکھی</w>",
    "بگا",
    "عنصر</w>",
    "اضافی</w>",
    "منتخ",
    "پکڑا</w>",
    "soft</w>",
    "blade</w>",
    "ndaar</w>",
    "taaza</w>",
    "جنگل</w>",
    "پتال</w>",
    "career</w>",
    "nahin</w>",
    "سلسلہ</w>",
    "غلام</w>",
    "cable</w>",
    "فورڈ</w>",
    "معاملات</w>",
    "چارلس</w>",
    "شنل</w>",
    "دھرنا</w>",
    "آمد</w>",
    "paidaar</w>",
    "فلیش</w>",
    "گہرا</w>",
    "بولنے</w>",
    "چہرہ</w>",
    "حروف</w>",
    "رشتہ</w>",
    "خوابوں</w>",
    "سمیت</w>",
    "great</w>",
    "خریدنے</w>",
    "عدم</w>",
    "گونگے</w>",
    "ڑیوں</w>",
    "اسٹریٹ</w>",
    "ہلاک</w>",
    "لکیریں</w>",
    "recor",
    "بوڑھے</w>",
    "پنج",
    "گویا</w>",
    "more</w>",
    "شدت</w>",
    "طریقوں</w>",
    "power</w>",
    "شہوت</w>",
    "ition</w>",
    "دھماکے</w>",
    "ایمانداری</w>",
    "زخمی</w>",
    "karain</w>",
    "pampers</w>",
    "rupay</w>",
    "cheezon</w>",
    "kahani</w>",
    "discount</w>",
    "grip</w>",
    "shaheed</w>",
    "pehnnay</w>",
    "فخر</w>",
    "bulb</w>",
    "منطقی</w>",
    "national</w>",
    "sharif</w>",
    "begair</w>",
    "آنسو</w>",
    "khalis</w>",
    "cheezain</w>",
    "حوالہ</w>",
    "شخصیت</w>",
    "زومبی</w>",
    "لالچ</w>",
    "پہلووں</w>",
    "smart</w>",
    "yakeeni</w>",
    "orignal</w>",
    "آسٹریلیایی</w>",
    "aetmaad</w>",
    "مبہم</w>",
    "karkardagi</w>",
    "recommend</w>",
    "احاطہ</w>",
    "لندن</w>",
    "چھٹکارا</w>",
    "گفتگو</w>",
    "منتخب</w>",
    "ہل</w>",
    "لل</w>",
    "ee</w>",
    "فن",
    "ہن</w>",
    "ہف",
    "ia</w>",
    "gy",
    "ze",
    "آل</w>",
    "لق</w>",
    "پو</w>",
    "tt</w>",
    "sے</w>",
    "بق",
    "ہہ</w>",
    "بک</w>",
    "اغ",
    "دف",
    "بگ</w>",
    "کڈ</w>",
    "وو</w>",
    "صب</w>",
    "ﮐﺮ</w>",
    "غم</w>",
    "hah</w>",
    "دای",
    "اید</w>",
    "مکی</w>",
    "کان",
    "لیڈ</w>",
    "arm</w>",
    "کتا</w>",
    "jis",
    "ہوش</w>",
    "ساد",
    "eeee",
    "میر",
    "ach</w>",
    "ناق",
    "hala",
    "ورٹ</w>",
    "abo",
    "پسی</w>",
    "wal",
    "wah</w>",
    "bawa",
    "دیکھنی</w>",
    "فام</w>",
    "oor</w>",
    "coo",
    "naya</w>",
    "kari</w>",
    "kare</w>",
    "روای",
    "dene</w>",
    "دبا",
    "باء</w>",
    "جینا</w>",
    "lib",
    "khata</w>",
    "khat",
    "pak</w>",
    "hey</w>",
    "hear",
    "صاب",
    "نیو",
    "پیارے</w>",
    "عملی</w>",
    "dama",
    "رسو",
    "سواری</w>",
    "hia</w>",
    "گام",
    "پہچ",
    "بنتی</w>",
    "افری",
    "toh",
    "too</w>",
    "cri",
    "chama",
    "جاد</w>",
    "چاہتی</w>",
    "ینگ</w>",
    "diye</w>",
    "hra</w>",
    "dhee",
    "ٹیوں</w>",
    "چھی",
    "ھیرے</w>",
    "بٹی</w>",
    "fun",
    "یون",
    "کیسا</w>",
    "قیات</w>",
    "تیری</w>",
    "lete</w>",
    "kri</w>",
    "خراج</w>",
    "app",
    "لگتے</w>",
    "sure</w>",
    "mash",
    "باند",
    "sity</w>",
    "shah",
    "shakh",
    "yani</w>",
    "oun</w>",
    "انتبا",
    "وراتی</w>",
    "اوت</w>",
    "اوٹ</w>",
    "lot</w>",
    "glo",
    "dia",
    "barh</w>",
    "صلہ</w>",
    "جاننا</w>",
    "ans</w>",
    "خوبی</w>",
    "ven",
    "خانے</w>",
    "پڑھا</w>",
    "بھال</w>",
    "maslay</w>",
    "ایجن",
    "نکل",
    "ستارہ</w>",
    "تعجب</w>",
    "ner</w>",
    "nes</w>",
    "ایشی",
    "بچاییں</w>",
    "kro</w>",
    "tto</w>",
    "tly</w>",
    "حامل</w>",
    "ٹروں</w>",
    "سوار</w>",
    "لیوس</w>",
    "انیت</w>",
    "مارنا</w>",
    "cour",
    "گول",
    "کنٹ",
    "post</w>",
    "zoon</w>",
    "بلڈ</w>",
    "طمان",
    "کھیلا</w>",
    "bach",
    "بیٹھے</w>",
    "بیٹھا</w>",
    "ges</w>",
    "kitna</w>",
    "rukh</w>",
    "mood</w>",
    "khair</w>",
    "produc",
    "تاثر</w>",
    "امریکیوں</w>",
    "کیٹن</w>",
    "asi</w>",
    "ders</w>",
    "pass</w>",
    "بتانا</w>",
    "مقدار</w>",
    "مرکب</w>",
    "saan</w>",
    "july</w>",
    "نفس</w>",
    "thn",
    "لمحوں</w>",
    "dosar",
    "pura",
    "maday</w>",
    "packet</w>",
    "plac",
    "plus</w>",
    "پورٹ</w>",
    "fori</w>",
    "فرینک</w>",
    "خریدی</w>",
    "خرید</w>",
    "hissay</w>",
    "ward</w>",
    "thanda</w>",
    "subah</w>",
    "دکھاتا</w>",
    "جویی</w>",
    "جیکٹ</w>",
    "اختتامی</w>",
    "موویز</w>",
    "abdu",
    "ٹایپ</w>",
    "umer</w>",
    "chips</w>",
    "ابتدا</w>",
    "tareef</w>"
  ],
  "merges": [
    [
      "ی",
      "ں</w>"
    ],
    [
      "h",
      "a"
    ],
    [
      "ہ",
      "ے</w>"
    ],
    [
      "ا",
      "ی"
    ],
    [
      "م",
      "یں</w>"
    ],
    [
      "ک",
      "ے</w>"
    ],
    [
      "و",
      "ر</w>"
    ],
    [
      "ن",
      "ے</w>"
    ],
    [
      "ہ",
      "یں</w>"
    ],
    [
      "س",
      "ے</w>"
    ],
    [
      "ک",
      "ی</w>"
    ],
    [
      "ا",
      "س</w>"
    ],
    [
      "ک",
      "ر"
    ],
    [
      "ا",
      "ور</w>"
    ],
    [
      "ی",
      "ہ</w>"
    ],
    [
      "ف",
      "ل"
    ],
    [
      "i",
      "n</w>"
    ],
    [
      "و",
      "ں</w>"
    ],
    [
      "ا",
      "ن"
    ],
    [
      "ha",
      "i</w>"
    ],
    [
      "ا",
      "ر"
    ],
    [
      "ل",
      "ی"
    ],
    [
      "ھ",
      "ی</w>"
    ],
    [
      "a",
      "r"
    ],
    [
      "h",
      "i</w>"
    ],
    [
      "فل",
      "م</w>"
    ],
    [
      "a",
      "a"
    ],
    [
      "ای",
      "ک</w>"
    ],
    [
      "m",
      "e"
    ],
    [
      "ک",
      "ہ</w>"
    ],
    [
      "ک",
      "و</w>"
    ],
    [
      "ر",
      "ی"
    ],
    [
      "ت",
      "ا</w>"
    ],
    [
      "د",
      "ی"
    ],
    [
      "i",
      "s"
    ],
    [
      "ن",
      "ہیں</w>"
    ],
    [
      "m",
      "a"
    ],
    [
      "ہ",
      "و"
    ],
    [
      "و",
      "ا"
    ],
    [
      "ھ",
      "ا</w>"
    ],
    [
      "ک",
      "ی"
    ],
    [
      "ک",
      "ا</w>"
    ],
    [
      "پ",
      "ر</w>"
    ],
    [
      "h",
      "a</w>"
    ],
    [
      "k",
      "e</w>"
    ],
    [
      "ا",
      "ر</w>"
    ],
    [
      "ب",
      "ہ"
    ],
    [
      "n",
      "a"
    ],
    [
      "me",
      "in</w>"
    ],
    [
      "s",
      "a"
    ],
    [
      "h",
      "o"
    ],
    [
      "u",
      "r</w>"
    ],
    [
      "ا",
      "د"
    ],
    [
      "e",
      "e"
    ],
    [
      "ب",
      "ھی</w>"
    ],
    [
      "ا",
      "ت"
    ],
    [
      "ا",
      "س"
    ],
    [
      "م",
      "ی"
    ],
    [
      "a",
      "c"
    ],
    [
      "ک",
      "ھ"
    ],
    [
      "ن",
      "ا</w>"
    ],
    [
      "t",
      "a"
    ],
    [
      "r",
      "a"
    ],
    [
      "ھ",
      "ے</w>"
    ],
    [
      "a",
      "ur</w>"
    ],
    [
      "ر",
      "ا"
    ],
    [
      "ت",
      "ھا</w>"
    ],
    [
      "s",
      "e</w>"
    ],
    [
      "و",
      "ی"
    ],
    [
      "ن",
      "ا"
    ],
    [
      "k",
      "i</w>"
    ],
    [
      "l",
      "a"
    ],
    [
      "i",
      "y"
    ],
    [
      "a",
      "r</w>"
    ],
    [
      "ک",
      "ن</w>"
    ],
    [
      "گ",
      "ی"
    ],
    [
      "م",
      "ج"
    ],
    [
      "و",
      "ر"
    ],
    [
      "آ",
      "پ</w>"
    ],
    [
      "بہ",
      "ت</w>"
    ],
    [
      "n",
      "e</w>"
    ],
    [
      "ت",
      "ے</w>"
    ],
    [
      "ا",
      "ن</w>"
    ],
    [
      "ا",
      "ل"
    ],
    [
      "t",
      "a</w>"
    ],
    [
      "b",
      "o"
    ],
    [
      "س",
      "ی</w>"
    ],
    [
      "w",
      "a"
    ],
    [
      "b",
      "a"
    ],
    [
      "لی",
      "کن</w>"
    ],
    [
      "m",
      "u"
    ],
    [
      "y",
      "e"
    ],
    [
      "ل",
      "ا"
    ],
    [
      "ت",
      "ی</w>"
    ],
    [
      "ہ",
      "ی</w>"
    ],
    [
      "ل",
      "ی</w>"
    ],
    [
      "م",
      "و"
    ],
    [
      "لی",
      "ے</w>"
    ],
    [
      "کی",
      "ا</w>"
    ],
    [
      "و",
      "ہ</w>"
    ],
    [
      "مج",
      "ھے</w>"
    ],
    [
      "ن",
      "ی</w>"
    ],
    [
      "k",
      "a</w>"
    ],
    [
      "ا",
      "چ"
    ],
    [
      "دی",
      "کھ"
    ],
    [
      "is",
      "s</w>"
    ],
    [
      "ج",
      "و</w>"
    ],
    [
      "i",
      "n"
    ],
    [
      "ye",
      "h</w>"
    ],
    [
      "t",
      "e"
    ],
    [
      "ا",
      "ہ"
    ],
    [
      "ا",
      "م</w>"
    ],
    [
      "h",
      "u"
    ],
    [
      "پ",
      "ی"
    ],
    [
      "ر",
      "ی</w>"
    ],
    [
      "خ",
      "و"
    ],
    [
      "ha",
      "t</w>"
    ],
    [
      "ا",
      "ک"
    ],
    [
      "o",
      "o"
    ],
    [
      "y",
      "a</w>"
    ],
    [
      "k",
      "ar"
    ],
    [
      "ل",
      "ے</w>"
    ],
    [
      "ہ",
      "وں</w>"
    ],
    [
      "j",
      "a"
    ],
    [
      "ر",
      "و"
    ],
    [
      "س",
      "ک"
    ],
    [
      "ز",
      "ی"
    ],
    [
      "bo",
      "hat</w>"
    ],
    [
      "ط",
      "ر"
    ],
    [
      "b",
      "hi</w>"
    ],
    [
      "k",
      "a"
    ],
    [
      "l",
      "e"
    ],
    [
      "ک",
      "چ"
    ],
    [
      "ق",
      "ی"
    ],
    [
      "d",
      "e"
    ],
    [
      "ا",
      "پ"
    ],
    [
      "n",
      "a</w>"
    ],
    [
      "ط",
      "ور</w>"
    ],
    [
      "ک",
      "ہ"
    ],
    [
      "ا",
      "سے</w>"
    ],
    [
      "s",
      "i"
    ],
    [
      "د",
      "ہ</w>"
    ],
    [
      "کچ",
      "ھ</w>"
    ],
    [
      "k",
      "o</w>"
    ],
    [
      "ب",
      "ا"
    ],
    [
      "ا",
      "گ"
    ],
    [
      "س",
      "ی"
    ],
    [
      "ت",
      "ھی</w>"
    ],
    [
      "ب",
      "ی"
    ],
    [
      "س",
      "ن"
    ],
    [
      "ان",
      "ی</w>"
    ],
    [
      "ار",
      "ی</w>"
    ],
    [
      "ات",
      "ھ</w>"
    ],
    [
      "ج",
      "ی"
    ],
    [
      "ت",
      "و</w>"
    ],
    [
      "گ",
      "ی</w>"
    ],
    [
      "د",
      "و"
    ],
    [
      "طر",
      "ح</w>"
    ],
    [
      "س",
      "اتھ</w>"
    ],
    [
      "l",
      "i"
    ],
    [
      "اد",
      "ہ</w>"
    ],
    [
      "ب",
      "ر"
    ],
    [
      "م",
      "ن"
    ],
    [
      "اد",
      "اک"
    ],
    [
      "g",
      "a"
    ],
    [
      "na",
      "hi</w>"
    ],
    [
      "k",
      "ha"
    ],
    [
      "p",
      "a"
    ],
    [
      "h",
      "e"
    ],
    [
      "ا",
      "ں</w>"
    ],
    [
      "h",
      "e</w>"
    ],
    [
      "ت",
      "ک</w>"
    ],
    [
      "ا",
      "ب"
    ],
    [
      "ای",
      "ی</w>"
    ],
    [
      "دی",
      "ک"
    ],
    [
      "ری",
      "ن</w>"
    ],
    [
      "و",
      "ق"
    ],
    [
      "ن",
      "ی"
    ],
    [
      "i",
      "l"
    ],
    [
      "t",
      "ha</w>"
    ],
    [
      "زی",
      "ادہ</w>"
    ],
    [
      "ار",
      "ے</w>"
    ],
    [
      "ع",
      "م"
    ],
    [
      "d",
      "a"
    ],
    [
      "ha",
      "in</w>"
    ],
    [
      "ا",
      "ل</w>"
    ],
    [
      "ک",
      "وی"
    ],
    [
      "ص",
      "ر"
    ],
    [
      "ar",
      "a"
    ],
    [
      "کر",
      "د"
    ],
    [
      "و",
      "ی</w>"
    ],
    [
      "س",
      "و"
    ],
    [
      "ک",
      "و"
    ],
    [
      "بہ",
      "ت"
    ],
    [
      "ح",
      "ی"
    ],
    [
      "ل",
      "و"
    ],
    [
      "h",
      "i"
    ],
    [
      "ھ",
      "و"
    ],
    [
      "ی",
      "ز</w>"
    ],
    [
      "صر",
      "ف</w>"
    ],
    [
      "کر",
      "نے</w>"
    ],
    [
      "ا",
      "م"
    ],
    [
      "o",
      "n</w>"
    ],
    [
      "ک",
      "ر</w>"
    ],
    [
      "y",
      "e</w>"
    ],
    [
      "کوی",
      "ی</w>"
    ],
    [
      "k",
      "aa"
    ],
    [
      "ک",
      "سی</w>"
    ],
    [
      "ی",
      "ے</w>"
    ],
    [
      "a",
      "i"
    ],
    [
      "ج",
      "س</w>"
    ],
    [
      "p",
      "e"
    ],
    [
      "ac",
      "ha</w>"
    ],
    [
      "پ",
      "ہ"
    ],
    [
      "ac",
      "hi</w>"
    ],
    [
      "ی",
      "ا</w>"
    ],
    [
      "r",
      "e"
    ],
    [
      "ha",
      "y</w>"
    ],
    [
      "گ",
      "ا</w>"
    ],
    [
      "b",
      "e"
    ],
    [
      "اگ",
      "ر</w>"
    ],
    [
      "ا",
      "ب</w>"
    ],
    [
      "k",
      "in</w>"
    ],
    [
      "وا",
      "ق"
    ],
    [
      "ر",
      "ہ"
    ],
    [
      "ر",
      "ے</w>"
    ],
    [
      "ho",
      "n</w>"
    ],
    [
      "ب",
      "ن"
    ],
    [
      "م",
      "ع"
    ],
    [
      "ا",
      "ف"
    ],
    [
      "t",
      "o"
    ],
    [
      "ظ",
      "ر</w>"
    ],
    [
      "واق",
      "ع"
    ],
    [
      "گی",
      "ا</w>"
    ],
    [
      "پ",
      "سن"
    ],
    [
      "س",
      "ب</w>"
    ],
    [
      "ق",
      "اب"
    ],
    [
      "فل",
      "م"
    ],
    [
      "r",
      "i"
    ],
    [
      "ڈ",
      "ی"
    ],
    [
      "س",
      "ت"
    ],
    [
      "c",
      "ha"
    ],
    [
      "کہ",
      "انی</w>"
    ],
    [
      "ج",
      "ا"
    ],
    [
      "aa",
      "r</w>"
    ],
    [
      "اچ",
      "ھی</w>"
    ],
    [
      "ر",
      "ت</w>"
    ],
    [
      "چ",
      "اہ"
    ],
    [
      "ہ",
      "اں</w>"
    ],
    [
      "t",
      "i</w>"
    ],
    [
      "کر",
      "تا</w>"
    ],
    [
      "ن",
      "گ</w>"
    ],
    [
      "ک",
      "ل</w>"
    ],
    [
      "d",
      "a</w>"
    ],
    [
      "mu",
      "j"
    ],
    [
      "م",
      "ح"
    ],
    [
      "iy",
      "e</w>"
    ],
    [
      "ی",
      "ر</w>"
    ],
    [
      "i",
      "t"
    ],
    [
      "دیکھ",
      "نے</w>"
    ],
    [
      "ب",
      "د"
    ],
    [
      "n",
      "i</w>"
    ],
    [
      "سک",
      "تا</w>"
    ],
    [
      "ہ",
      "ر</w>"
    ],
    [
      "n",
      "d</w>"
    ],
    [
      "r",
      "a</w>"
    ],
    [
      "ل",
      "ا</w>"
    ],
    [
      "k",
      "u"
    ],
    [
      "ج",
      "و"
    ],
    [
      "ن",
      "ہ</w>"
    ],
    [
      "ای",
      "ے</w>"
    ],
    [
      "h",
      "ee"
    ],
    [
      "ٹ",
      "ی"
    ],
    [
      "ai",
      "k</w>"
    ],
    [
      "ج",
      "ب</w>"
    ],
    [
      "اداک",
      "اری</w>"
    ],
    [
      "د",
      "ی</w>"
    ],
    [
      "ھ",
      "ی"
    ],
    [
      "پ",
      "ر"
    ],
    [
      "ٹ",
      "ی</w>"
    ],
    [
      "o",
      "r"
    ],
    [
      "p",
      "ar</w>"
    ],
    [
      "نا",
      "ک</w>"
    ],
    [
      "u",
      "n"
    ],
    [
      "ب",
      "ارے</w>"
    ],
    [
      "k",
      "e"
    ],
    [
      "و",
      "ن"
    ],
    [
      "فلم",
      "وں</w>"
    ],
    [
      "t",
      "i"
    ],
    [
      "قاب",
      "ل</w>"
    ],
    [
      "r",
      "o"
    ],
    [
      "وق",
      "ت</w>"
    ],
    [
      "ک",
      "م</w>"
    ],
    [
      "muj",
      "he</w>"
    ],
    [
      "خ",
      "ت"
    ],
    [
      "س",
      "ا</w>"
    ],
    [
      "na",
      "y</w>"
    ],
    [
      "ا",
      "ت</w>"
    ],
    [
      "واقع",
      "ی</w>"
    ],
    [
      "le",
      "kin</w>"
    ],
    [
      "ا",
      "ح"
    ],
    [
      "با",
      "ت</w>"
    ],
    [
      "حی",
      "رت</w>"
    ],
    [
      "ڈ",
      "ی</w>"
    ],
    [
      "aa",
      "t</w>"
    ],
    [
      "q",
      "a"
    ],
    [
      "iy",
      "a</w>"
    ],
    [
      "i",
      "l</w>"
    ],
    [
      "ت",
      "ی"
    ],
    [
      "r",
      "e</w>"
    ],
    [
      "t",
      "e</w>"
    ],
    [
      "ک",
      "بھی</w>"
    ],
    [
      "ج",
      "ہ</w>"
    ],
    [
      "پسن",
      "د</w>"
    ],
    [
      "اپ",
      "نے</w>"
    ],
    [
      "م",
      "ز"
    ],
    [
      "h",
      "o</w>"
    ],
    [
      "r",
      "i</w>"
    ],
    [
      "kaa",
      "m</w>"
    ],
    [
      "کرد",
      "ار</w>"
    ],
    [
      "خ",
      "را"
    ],
    [
      "a",
      "p"
    ],
    [
      "ل",
      "گ"
    ],
    [
      "ک",
      "ام</w>"
    ],
    [
      "ی",
      "قی"
    ],
    [
      "س",
      "ت</w>"
    ],
    [
      "بہت",
      "رین</w>"
    ],
    [
      "t",
      "ar"
    ],
    [
      "m",
      "iy"
    ],
    [
      "m",
      "o"
    ],
    [
      "ٹ",
      "ر</w>"
    ],
    [
      "in",
      "g</w>"
    ],
    [
      "k",
      "ar</w>"
    ],
    [
      "ڑ",
      "ا</w>"
    ],
    [
      "s",
      "u"
    ],
    [
      "ma",
      "s"
    ],
    [
      "l",
      "iye</w>"
    ],
    [
      "خرا",
      "ب</w>"
    ],
    [
      "l",
      "a</w>"
    ],
    [
      "ہ",
      "و</w>"
    ],
    [
      "ان",
      "د"
    ],
    [
      "خو",
      "ف"
    ],
    [
      "م",
      "ض"
    ],
    [
      "aa",
      "l</w>"
    ],
    [
      "دیک",
      "ھا</w>"
    ],
    [
      "ma",
      "t</w>"
    ],
    [
      "رہ",
      "ا</w>"
    ],
    [
      "t",
      "y</w>"
    ],
    [
      "z",
      "a"
    ],
    [
      "t",
      "h</w>"
    ],
    [
      "ق",
      "ی</w>"
    ],
    [
      "خ",
      "یز</w>"
    ],
    [
      "عم",
      "دہ</w>"
    ],
    [
      "کر",
      "تے</w>"
    ],
    [
      "ک",
      "ار"
    ],
    [
      "k",
      "h"
    ],
    [
      "خوف",
      "ناک</w>"
    ],
    [
      "ہ",
      "ن"
    ],
    [
      "c",
      "o"
    ],
    [
      "کر",
      "یں</w>"
    ],
    [
      "c",
      "h</w>"
    ],
    [
      "د",
      "ل"
    ],
    [
      "n",
      "o"
    ],
    [
      "ب",
      "چ"
    ],
    [
      "s",
      "ha"
    ],
    [
      "y",
      "a"
    ],
    [
      "م",
      "ا"
    ],
    [
      "گ",
      "ے</w>"
    ],
    [
      "u",
      "n</w>"
    ],
    [
      "ا",
      "ص"
    ],
    [
      "miy",
      "aar</w>"
    ],
    [
      "ان",
      "ت"
    ],
    [
      "ہو",
      "ا</w>"
    ],
    [
      "ب",
      "ے</w>"
    ],
    [
      "ور",
      "ت</w>"
    ],
    [
      "ہو",
      "تا</w>"
    ],
    [
      "ھ",
      "ر</w>"
    ],
    [
      "i",
      "s</w>"
    ],
    [
      "دی",
      "ا</w>"
    ],
    [
      "q",
      "ee"
    ],
    [
      "ت",
      "ھے</w>"
    ],
    [
      "ب",
      "ار</w>"
    ],
    [
      "ان",
      "گی"
    ],
    [
      "مو",
      "وی</w>"
    ],
    [
      "ور",
      "ی</w>"
    ],
    [
      "انگی",
      "ز</w>"
    ],
    [
      "ح",
      "کہ</w>"
    ],
    [
      "مض",
      "حکہ</w>"
    ],
    [
      "ح",
      "قی"
    ],
    [
      "ر",
      "ا</w>"
    ],
    [
      "م",
      "ی</w>"
    ],
    [
      "ن",
      "د"
    ],
    [
      "ات",
      "ی</w>"
    ],
    [
      "ا",
      "و"
    ],
    [
      "q",
      "u"
    ],
    [
      "ب",
      "و"
    ],
    [
      "ای",
      "ا</w>"
    ],
    [
      "ا",
      "می"
    ],
    [
      "پ",
      "لا"
    ],
    [
      "l",
      "e</w>"
    ],
    [
      "ک",
      "ار</w>"
    ],
    [
      "ل",
      "ط"
    ],
    [
      "بد",
      "ت"
    ],
    [
      "چ",
      "ی"
    ],
    [
      "g",
      "a</w>"
    ],
    [
      "s",
      "t</w>"
    ],
    [
      "k",
      "o"
    ],
    [
      "ma",
      "y</w>"
    ],
    [
      "ب",
      "ع"
    ],
    [
      "کر",
      "نا</w>"
    ],
    [
      "l",
      "o"
    ],
    [
      "ب",
      "ڑ"
    ],
    [
      "م",
      "ت"
    ],
    [
      "اپ",
      "نی</w>"
    ],
    [
      "چ",
      "ھو"
    ],
    [
      "t",
      "hi</w>"
    ],
    [
      "d",
      "i"
    ],
    [
      "ب",
      "ال"
    ],
    [
      "د",
      "ر"
    ],
    [
      "ار",
      "وں</w>"
    ],
    [
      "اچ",
      "ھا</w>"
    ],
    [
      "گی",
      "ی</w>"
    ],
    [
      "بہت",
      "ر</w>"
    ],
    [
      "م",
      "ش"
    ],
    [
      "وا",
      "لی</w>"
    ],
    [
      "پلا",
      "ٹ</w>"
    ],
    [
      "جا",
      "تا</w>"
    ],
    [
      "b",
      "ar"
    ],
    [
      "ی",
      "ہاں</w>"
    ],
    [
      "می",
      "رے</w>"
    ],
    [
      "غ",
      "یر</w>"
    ],
    [
      "c",
      "e</w>"
    ],
    [
      "لگ",
      "تا</w>"
    ],
    [
      "ہ",
      "م</w>"
    ],
    [
      "پہ",
      "لے</w>"
    ],
    [
      "m",
      "e</w>"
    ],
    [
      "ha",
      "n</w>"
    ],
    [
      "j",
      "o</w>"
    ],
    [
      "d",
      "o"
    ],
    [
      "ل",
      "ڑ"
    ],
    [
      "م",
      "ت</w>"
    ],
    [
      "م",
      "ر"
    ],
    [
      "is",
      "te"
    ],
    [
      "ن",
      "و"
    ],
    [
      "r",
      "ee"
    ],
    [
      "sa",
      "th</w>"
    ],
    [
      "چ",
      "س"
    ],
    [
      "وا",
      "لے</w>"
    ],
    [
      "کو",
      "ش"
    ],
    [
      "m",
      "aal</w>"
    ],
    [
      "s",
      "e"
    ],
    [
      "م",
      "ک"
    ],
    [
      "ک",
      "ش"
    ],
    [
      "م",
      "ل</w>"
    ],
    [
      "a",
      "l"
    ],
    [
      "ہ",
      "ایی</w>"
    ],
    [
      "دل",
      "چس"
    ],
    [
      "a",
      "y</w>"
    ],
    [
      "چاہ",
      "یے</w>"
    ],
    [
      "بع",
      "د</w>"
    ],
    [
      "ہو",
      "نے</w>"
    ],
    [
      "گ",
      "ھ"
    ],
    [
      "qee",
      "mat</w>"
    ],
    [
      "na",
      "i</w>"
    ],
    [
      "b",
      "il"
    ],
    [
      "اس",
      "کر"
    ],
    [
      "و",
      "جہ</w>"
    ],
    [
      "iste",
      "maal</w>"
    ],
    [
      "k",
      "i"
    ],
    [
      "ف",
      "ار"
    ],
    [
      "ف",
      "ی"
    ],
    [
      "d",
      "u"
    ],
    [
      "k",
      "hu"
    ],
    [
      "ل",
      "ہ</w>"
    ],
    [
      "g",
      "ha"
    ],
    [
      "sa",
      "y</w>"
    ],
    [
      "کوش",
      "ش</w>"
    ],
    [
      "ج",
      "ان"
    ],
    [
      "ا",
      "د</w>"
    ],
    [
      "ا",
      "ز</w>"
    ],
    [
      "a",
      "n"
    ],
    [
      "ب",
      "ی</w>"
    ],
    [
      "z",
      "e</w>"
    ],
    [
      "بدت",
      "رین</w>"
    ],
    [
      "اس",
      "ٹ"
    ],
    [
      "m",
      "il"
    ],
    [
      "v",
      "e"
    ],
    [
      "s",
      "o"
    ],
    [
      "ق",
      "ت</w>"
    ],
    [
      "خ",
      "ا"
    ],
    [
      "دو",
      "س"
    ],
    [
      "م",
      "ای"
    ],
    [
      "ta",
      "y</w>"
    ],
    [
      "چ",
      "یز</w>"
    ],
    [
      "ف",
      "ری"
    ],
    [
      "ہ",
      "ی"
    ],
    [
      "ک",
      "ت"
    ],
    [
      "پ",
      "ڑ"
    ],
    [
      "سک",
      "تے</w>"
    ],
    [
      "می",
      "ری</w>"
    ],
    [
      "ی",
      "ی</w>"
    ],
    [
      "ka",
      "y</w>"
    ],
    [
      "ج",
      "ایے</w>"
    ],
    [
      "c",
      "hee"
    ],
    [
      "ا",
      "ث"
    ],
    [
      "کی",
      "وں</w>"
    ],
    [
      "aa",
      "p</w>"
    ],
    [
      "ra",
      "n"
    ],
    [
      "ک",
      "س</w>"
    ],
    [
      "ب",
      "ھ"
    ],
    [
      "la",
      "y</w>"
    ],
    [
      "ہو",
      "یے</w>"
    ],
    [
      "aa",
      "d</w>"
    ],
    [
      "k",
      "ya</w>"
    ],
    [
      "be",
      "h"
    ],
    [
      "y",
      "ar</w>"
    ],
    [
      "mas",
      "no"
    ],
    [
      "ند",
      "گی</w>"
    ],
    [
      "qu",
      "a"
    ],
    [
      "b",
      "u"
    ],
    [
      "را",
      "ت</w>"
    ],
    [
      "te",
      "r"
    ],
    [
      "ج",
      "ن"
    ],
    [
      "ک",
      "ل"
    ],
    [
      "ب",
      "ص"
    ],
    [
      "ار",
      "ہ</w>"
    ],
    [
      "بر",
      "د"
    ],
    [
      "d",
      "ara"
    ],
    [
      "ko",
      "i</w>"
    ],
    [
      "ش",
      "ای"
    ],
    [
      "اص",
      "ل</w>"
    ],
    [
      "masno",
      "aat</w>"
    ],
    [
      "م",
      "ل"
    ],
    [
      "ض",
      "ر"
    ],
    [
      "آ",
      "خ"
    ],
    [
      "ای",
      "سا</w>"
    ],
    [
      "پ",
      "ھر</w>"
    ],
    [
      "si",
      "ze</w>"
    ],
    [
      "ر",
      "ہے</w>"
    ],
    [
      "iy",
      "a"
    ],
    [
      "دیکھ",
      "نا</w>"
    ],
    [
      "ز",
      "ی</w>"
    ],
    [
      "l",
      "i</w>"
    ],
    [
      "s",
      "h</w>"
    ],
    [
      "ت",
      "م"
    ],
    [
      "de",
      "r</w>"
    ],
    [
      "li",
      "ty</w>"
    ],
    [
      "بال",
      "کل</w>"
    ],
    [
      "یقی",
      "ن</w>"
    ],
    [
      "ت",
      "ع"
    ],
    [
      "t",
      "u</w>"
    ],
    [
      "dara",
      "z</w>"
    ],
    [
      "ت",
      "ھ"
    ],
    [
      "ت",
      "ص"
    ],
    [
      "ee",
      "n</w>"
    ],
    [
      "s",
      "hi"
    ],
    [
      "سو",
      "چ"
    ],
    [
      "ku",
      "l</w>"
    ],
    [
      "g",
      "e</w>"
    ],
    [
      "ح",
      "د</w>"
    ],
    [
      "ha",
      "ha"
    ],
    [
      "پی",
      "ش</w>"
    ],
    [
      "c",
      "h"
    ],
    [
      "خ",
      "ی"
    ],
    [
      "t",
      "hay</w>"
    ],
    [
      "qua",
      "lity</w>"
    ],
    [
      "ب",
      "ری</w>"
    ],
    [
      "t",
      "u"
    ],
    [
      "n",
      "y</w>"
    ],
    [
      "جی",
      "سے</w>"
    ],
    [
      "دلچس",
      "پ</w>"
    ],
    [
      "bil",
      "kul</w>"
    ],
    [
      "پ",
      "و"
    ],
    [
      "n",
      "i"
    ],
    [
      "ان",
      "ہ</w>"
    ],
    [
      "n",
      "e"
    ],
    [
      "ش",
      "ی"
    ],
    [
      "ra",
      "ha</w>"
    ],
    [
      "d",
      "i</w>"
    ],
    [
      "ا",
      "ٹ"
    ],
    [
      "kar",
      "ta</w>"
    ],
    [
      "me",
      "re</w>"
    ],
    [
      "ای",
      "یں</w>"
    ],
    [
      "لو",
      "گ"
    ],
    [
      "s",
      "hu"
    ],
    [
      "خا",
      "ص</w>"
    ],
    [
      "اہ",
      "ر</w>"
    ],
    [
      "گ",
      "ر"
    ],
    [
      "e",
      "n</w>"
    ],
    [
      "د",
      "و</w>"
    ],
    [
      "ga",
      "ya</w>"
    ],
    [
      "دیک",
      "ھی</w>"
    ],
    [
      "pe",
      "h"
    ],
    [
      "م",
      "ہ</w>"
    ],
    [
      "اف",
      "ی</w>"
    ],
    [
      "w",
      "o"
    ],
    [
      "ک",
      "اس"
    ],
    [
      "دیک",
      "ھ</w>"
    ],
    [
      "خو",
      "بص"
    ],
    [
      "دیکھ",
      "یں</w>"
    ],
    [
      "ز",
      "ندگی</w>"
    ],
    [
      "ح",
      "ص"
    ],
    [
      "n",
      "hi</w>"
    ],
    [
      "م",
      "نا"
    ],
    [
      "u",
      "say</w>"
    ],
    [
      "و",
      "ن</w>"
    ],
    [
      "فل",
      "میں</w>"
    ],
    [
      "شای",
      "د</w>"
    ],
    [
      "تم",
      "ام</w>"
    ],
    [
      "لوگ",
      "وں</w>"
    ],
    [
      "ات",
      "نا</w>"
    ],
    [
      "ز",
      "برد"
    ],
    [
      "می",
      "ن</w>"
    ],
    [
      "ق",
      "ری"
    ],
    [
      "ت",
      "ر"
    ],
    [
      "ن",
      "وں</w>"
    ],
    [
      "is",
      "i</w>"
    ],
    [
      "pa",
      "sa"
    ],
    [
      "سو",
      "س</w>"
    ],
    [
      "لط",
      "ف</w>"
    ],
    [
      "حقی",
      "قت</w>"
    ],
    [
      "t",
      "s</w>"
    ],
    [
      "ا",
      "نے</w>"
    ],
    [
      "ن",
      "ظر</w>"
    ],
    [
      "s",
      "h"
    ],
    [
      "م",
      "ب"
    ],
    [
      "k",
      "r"
    ],
    [
      "t",
      "o</w>"
    ],
    [
      "ر",
      "کھ"
    ],
    [
      "wa",
      "q"
    ],
    [
      "m",
      "il</w>"
    ],
    [
      "ی",
      "ن</w>"
    ],
    [
      "ho",
      "ta</w>"
    ],
    [
      "ma",
      "yar</w>"
    ],
    [
      "کر",
      "تی</w>"
    ],
    [
      "زبرد",
      "ست</w>"
    ],
    [
      "l",
      "y</w>"
    ],
    [
      "ر",
      "چ"
    ],
    [
      "منا",
      "ظر</w>"
    ],
    [
      "اداک",
      "ار</w>"
    ],
    [
      "ل",
      "ای"
    ],
    [
      "پ",
      "ری"
    ],
    [
      "ات",
      "ے</w>"
    ],
    [
      "ام",
      "ل</w>"
    ],
    [
      "ٹ",
      "ھی"
    ],
    [
      "ون",
      "کہ</w>"
    ],
    [
      "or",
      "der</w>"
    ],
    [
      "ن",
      "گ"
    ],
    [
      "ha",
      "n"
    ],
    [
      "ٹ",
      "ر"
    ],
    [
      "پ",
      "ٹ</w>"
    ],
    [
      "ٹھی",
      "ک</w>"
    ],
    [
      "ق",
      "س"
    ],
    [
      "s",
      "a</w>"
    ],
    [
      "chee",
      "z</w>"
    ],
    [
      "م",
      "ق"
    ],
    [
      "ا",
      "ع"
    ],
    [
      "کاس",
      "ٹ</w>"
    ],
    [
      "دی",
      "تا</w>"
    ],
    [
      "وا",
      "ر</w>"
    ],
    [
      "sa",
      "k"
    ],
    [
      "ص",
      "و"
    ],
    [
      "ف",
      "ر"
    ],
    [
      "ki",
      "a</w>"
    ],
    [
      "g",
      "i</w>"
    ],
    [
      "ر",
      "ہی</w>"
    ],
    [
      "pasa",
      "nd</w>"
    ],
    [
      "جو",
      "د</w>"
    ],
    [
      "kha",
      "ree"
    ],
    [
      "ہ",
      "د"
    ],
    [
      "س",
      "ال</w>"
    ],
    [
      "و",
      "س</w>"
    ],
    [
      "د",
      "ل</w>"
    ],
    [
      "خ",
      "وا"
    ],
    [
      "ک",
      "افی</w>"
    ],
    [
      "f",
      "a"
    ],
    [
      "p",
      "ro"
    ],
    [
      "a",
      "sa"
    ],
    [
      "اس",
      "ت"
    ],
    [
      "ہو",
      "تی</w>"
    ],
    [
      "kar",
      "ne</w>"
    ],
    [
      "to",
      "r</w>"
    ],
    [
      "ن",
      "ڈ"
    ],
    [
      "ٹ",
      "ری"
    ],
    [
      "c",
      "ha</w>"
    ],
    [
      "ی",
      "ت</w>"
    ],
    [
      "ان",
      "ا</w>"
    ],
    [
      "ra",
      "y</w>"
    ],
    [
      "ا",
      "ز"
    ],
    [
      "من",
      "ٹ</w>"
    ],
    [
      "س",
      "ن</w>"
    ],
    [
      "p",
      "ar"
    ],
    [
      "پ",
      "اس</w>"
    ],
    [
      "sa",
      "b</w>"
    ],
    [
      "i",
      "t</w>"
    ],
    [
      "ا",
      "ح</w>"
    ],
    [
      "م",
      "ار"
    ],
    [
      "ara",
      "m</w>"
    ],
    [
      "ہ",
      "ار"
    ],
    [
      "بر",
      "ا</w>"
    ],
    [
      "اسکر",
      "پٹ</w>"
    ],
    [
      "ن",
      "ڈ</w>"
    ],
    [
      "کی",
      "ونکہ</w>"
    ],
    [
      "س",
      "مج"
    ],
    [
      "من",
      "ظر</w>"
    ],
    [
      "f",
      "i</w>"
    ],
    [
      "ran",
      "g</w>"
    ],
    [
      "چ",
      "ھ"
    ],
    [
      "اس",
      "ک"
    ],
    [
      "to",
      "u</w>"
    ],
    [
      "کش",
      "ن</w>"
    ],
    [
      "انت",
      "ہایی</w>"
    ],
    [
      "u",
      "r"
    ],
    [
      "ra",
      "t</w>"
    ],
    [
      "خوبص",
      "ورت</w>"
    ],
    [
      "گ",
      "و"
    ],
    [
      "c",
      "e"
    ],
    [
      "پ",
      "وری</w>"
    ],
    [
      "ہد",
      "ای"
    ],
    [
      "خو",
      "د</w>"
    ],
    [
      "r",
      "f</w>"
    ],
    [
      "ای",
      "سی</w>"
    ],
    [
      "م",
      "ا</w>"
    ],
    [
      "پ",
      "ی</w>"
    ],
    [
      "وا",
      "لا</w>"
    ],
    [
      "خی",
      "ال</w>"
    ],
    [
      "ن",
      "ٹ"
    ],
    [
      "ڑ",
      "ے</w>"
    ],
    [
      "ku",
      "ch</w>"
    ],
    [
      "ہو",
      "یی</w>"
    ],
    [
      "b",
      "aad</w>"
    ],
    [
      "و",
      "ل</w>"
    ],
    [
      "لی",
      "ا</w>"
    ],
    [
      "d",
      "ar"
    ],
    [
      "س",
      "ر"
    ],
    [
      "اس",
      "ی</w>"
    ],
    [
      "ای",
      "م</w>"
    ],
    [
      "ک",
      "امی"
    ],
    [
      "h",
      "t</w>"
    ],
    [
      "a",
      "g"
    ],
    [
      "ha",
      "r</w>"
    ],
    [
      "سک",
      "تی</w>"
    ],
    [
      "m",
      "i"
    ],
    [
      "ش",
      "ر"
    ],
    [
      "ع",
      "ہ</w>"
    ],
    [
      "ho",
      "t</w>"
    ],
    [
      "ع",
      "ام</w>"
    ],
    [
      "خو",
      "ش"
    ],
    [
      "ت",
      "فری"
    ],
    [
      "ت",
      "ر</w>"
    ],
    [
      "a",
      "b</w>"
    ],
    [
      "w",
      "a</w>"
    ],
    [
      "ب",
      "ت</w>"
    ],
    [
      "خت",
      "م</w>"
    ],
    [
      "د",
      "کھ"
    ],
    [
      "ب",
      "نا"
    ],
    [
      "ہو",
      "گا</w>"
    ],
    [
      "t",
      "hee"
    ],
    [
      "ج",
      "اتی</w>"
    ],
    [
      "si",
      "rf</w>"
    ],
    [
      "wo",
      "h</w>"
    ],
    [
      "ش",
      "امل</w>"
    ],
    [
      "a",
      "l</w>"
    ],
    [
      "آ",
      "د"
    ],
    [
      "رچ",
      "ہ</w>"
    ],
    [
      "را",
      "ن</w>"
    ],
    [
      "ع",
      "لا"
    ],
    [
      "م",
      "خت"
    ],
    [
      "اگ",
      "رچہ</w>"
    ],
    [
      "h",
      "y</w>"
    ],
    [
      "ذ",
      "ری"
    ],
    [
      "p",
      "o"
    ],
    [
      "b",
      "i"
    ],
    [
      "p",
      "i"
    ],
    [
      "j",
      "a</w>"
    ],
    [
      "ت",
      "ھو"
    ],
    [
      "کر",
      "سکتا</w>"
    ],
    [
      "مز",
      "اح"
    ],
    [
      "آخ",
      "ر</w>"
    ],
    [
      "ر",
      "ہ</w>"
    ],
    [
      "ای",
      "ع</w>"
    ],
    [
      "م",
      "ط"
    ],
    [
      "r",
      "y</w>"
    ],
    [
      "c",
      "t</w>"
    ],
    [
      "چ",
      "ل"
    ],
    [
      "m",
      "ar"
    ],
    [
      "ب",
      "ور"
    ],
    [
      "ho",
      "ne</w>"
    ],
    [
      "ش",
      "خ"
    ],
    [
      "shi",
      "r"
    ],
    [
      "is",
      "a</w>"
    ],
    [
      "oo",
      "n</w>"
    ],
    [
      "ض",
      "ایع</w>"
    ],
    [
      "ای",
      "ی"
    ],
    [
      "s",
      "ee"
    ],
    [
      "ال",
      "ی</w>"
    ],
    [
      "پری",
      "ش"
    ],
    [
      "ب",
      "ل"
    ],
    [
      "ڈی",
      "و</w>"
    ],
    [
      "م",
      "د"
    ],
    [
      "o",
      "r</w>"
    ],
    [
      "m",
      "i</w>"
    ],
    [
      "د",
      "ور</w>"
    ],
    [
      "اد",
      "ی</w>"
    ],
    [
      "tar",
      "een</w>"
    ],
    [
      "w",
      "e"
    ],
    [
      "م",
      "ان"
    ],
    [
      "t",
      "ho"
    ],
    [
      "اچ",
      "ھے</w>"
    ],
    [
      "wa",
      "qa"
    ],
    [
      "ap",
      "ne</w>"
    ],
    [
      "مز",
      "اح</w>"
    ],
    [
      "ج",
      "وا"
    ],
    [
      "ja",
      "b</w>"
    ],
    [
      "kaa",
      "fi</w>"
    ],
    [
      "k",
      "y"
    ],
    [
      "وا",
      "ل"
    ],
    [
      "گی",
      "ے</w>"
    ],
    [
      "ac",
      "hay</w>"
    ],
    [
      "مزاح",
      "یہ</w>"
    ],
    [
      "z",
      "a</w>"
    ],
    [
      "s",
      "y</w>"
    ],
    [
      "ن",
      "س</w>"
    ],
    [
      "اہ",
      "م</w>"
    ],
    [
      "me",
      "ra</w>"
    ],
    [
      "ت",
      "ح"
    ],
    [
      "n",
      "u"
    ],
    [
      "z",
      "ar"
    ],
    [
      "عم",
      "ر</w>"
    ],
    [
      "is",
      "ay</w>"
    ],
    [
      "و",
      "ف</w>"
    ],
    [
      "k",
      "h</w>"
    ],
    [
      "کھ",
      "ی"
    ],
    [
      "ش",
      "رو"
    ],
    [
      "ٹ",
      "و"
    ],
    [
      "ا",
      "بھی</w>"
    ],
    [
      "ac",
      "h"
    ],
    [
      "ڈ",
      "را"
    ],
    [
      "بی",
      "ٹ"
    ],
    [
      "پہ",
      "لی</w>"
    ],
    [
      "ل",
      "ہ"
    ],
    [
      "مک",
      "مل</w>"
    ],
    [
      "و",
      "و"
    ],
    [
      "ت",
      "ب"
    ],
    [
      "ا",
      "خت"
    ],
    [
      "کار",
      "کرد"
    ],
    [
      "j",
      "is</w>"
    ],
    [
      "ہ",
      "م"
    ],
    [
      "u",
      "s"
    ],
    [
      "ش",
      "ہ</w>"
    ],
    [
      "کارکرد",
      "گی</w>"
    ],
    [
      "کرد",
      "اروں</w>"
    ],
    [
      "g",
      "e"
    ],
    [
      "p",
      "ac"
    ],
    [
      "ی",
      "اد</w>"
    ],
    [
      "waq",
      "t</w>"
    ],
    [
      "thee",
      "k</w>"
    ],
    [
      "پ",
      "س</w>"
    ],
    [
      "اد",
      "ا</w>"
    ],
    [
      "اث",
      "رات</w>"
    ],
    [
      "ف",
      "ی</w>"
    ],
    [
      "it",
      "na</w>"
    ],
    [
      "ت",
      "ھی"
    ],
    [
      "ter",
      "han</w>"
    ],
    [
      "وق",
      "وف</w>"
    ],
    [
      "ڑ",
      "ی</w>"
    ],
    [
      "c",
      "a"
    ],
    [
      "م",
      "ست"
    ],
    [
      "شخ",
      "ص</w>"
    ],
    [
      "beh",
      "tareen</w>"
    ],
    [
      "م",
      "س"
    ],
    [
      "می",
      "را</w>"
    ],
    [
      "مح",
      "بت</w>"
    ],
    [
      "waqa",
      "i</w>"
    ],
    [
      "d",
      "in</w>"
    ],
    [
      "i",
      "ne</w>"
    ],
    [
      "نی",
      "ا</w>"
    ],
    [
      "k",
      "iya</w>"
    ],
    [
      "p",
      "hone</w>"
    ],
    [
      "r",
      "u"
    ],
    [
      "اچ",
      "ھ</w>"
    ],
    [
      "س",
      "ارے</w>"
    ],
    [
      "اس",
      "ٹی"
    ],
    [
      "نا",
      "قابل</w>"
    ],
    [
      "y",
      "i</w>"
    ],
    [
      "آ",
      "س"
    ],
    [
      "ha",
      "a"
    ],
    [
      "ک",
      "ہیں</w>"
    ],
    [
      "t",
      "he"
    ],
    [
      "d",
      "iya</w>"
    ],
    [
      "بڑ",
      "ی</w>"
    ],
    [
      "مش",
      "کل</w>"
    ],
    [
      "بنا",
      "نے</w>"
    ],
    [
      "ب",
      "ا</w>"
    ],
    [
      "اند",
      "از</w>"
    ],
    [
      "ات",
      "نی</w>"
    ],
    [
      "ب",
      "ارہ</w>"
    ],
    [
      "ل",
      "ف</w>"
    ],
    [
      "ای",
      "ہ</w>"
    ],
    [
      "me",
      "ri</w>"
    ],
    [
      "یقی",
      "نی</w>"
    ],
    [
      "ا",
      "ش"
    ],
    [
      "sa",
      "hi</w>"
    ],
    [
      "mil",
      "a</w>"
    ],
    [
      "شرو",
      "ع</w>"
    ],
    [
      "ت",
      "ک"
    ],
    [
      "ق",
      "د"
    ],
    [
      "w",
      "o</w>"
    ],
    [
      "oo",
      "d</w>"
    ],
    [
      "ہن",
      "س"
    ],
    [
      "حقی",
      "قی</w>"
    ],
    [
      "بور",
      "نگ</w>"
    ],
    [
      "وی",
      "ڈیو</w>"
    ],
    [
      "دو",
      "بارہ</w>"
    ],
    [
      "s",
      "ho"
    ],
    [
      "ب",
      "را"
    ],
    [
      "ب",
      "نی"
    ],
    [
      "جا",
      "نے</w>"
    ],
    [
      "z",
      "iya"
    ],
    [
      "اٹ",
      "ھ"
    ],
    [
      "د",
      "ا</w>"
    ],
    [
      "ب",
      "ل</w>"
    ],
    [
      "ار",
      "ی"
    ],
    [
      "گ",
      "ری"
    ],
    [
      "la",
      "g"
    ],
    [
      "i",
      "r</w>"
    ],
    [
      "aa",
      "m</w>"
    ],
    [
      "وی",
      "ر</w>"
    ],
    [
      "بچ",
      "وں</w>"
    ],
    [
      "س",
      "فار"
    ],
    [
      "مح",
      "سوس</w>"
    ],
    [
      "s",
      "t"
    ],
    [
      "n",
      "t</w>"
    ],
    [
      "kar",
      "na</w>"
    ],
    [
      "چاہ",
      "تے</w>"
    ],
    [
      "ای",
      "کشن</w>"
    ],
    [
      "سفار",
      "ش</w>"
    ],
    [
      "ق",
      "ص</w>"
    ],
    [
      "pro",
      "du"
    ],
    [
      "آ",
      "ر"
    ],
    [
      "د",
      "ھ"
    ],
    [
      "v",
      "i"
    ],
    [
      "p",
      "e</w>"
    ],
    [
      "ہو",
      "گی</w>"
    ],
    [
      "لو",
      "گ</w>"
    ],
    [
      "pe",
      "r</w>"
    ],
    [
      "مع",
      "لو"
    ],
    [
      "مو",
      "جود</w>"
    ],
    [
      "کر",
      "ایہ</w>"
    ],
    [
      "ب",
      "ن</w>"
    ],
    [
      "ہو",
      "نا</w>"
    ],
    [
      "mu",
      "t"
    ],
    [
      "c",
      "he"
    ],
    [
      "ہو",
      "سکتا</w>"
    ],
    [
      "دوس",
      "رے</w>"
    ],
    [
      "اپ",
      "نا</w>"
    ],
    [
      "is",
      "h</w>"
    ],
    [
      "ہ",
      "می"
    ],
    [
      "جی",
      "ب</w>"
    ],
    [
      "عم",
      "ال</w>"
    ],
    [
      "چاہ",
      "تا</w>"
    ],
    [
      "اث",
      "ر</w>"
    ],
    [
      "سوچ",
      "ا</w>"
    ],
    [
      "س",
      "ام"
    ],
    [
      "امی",
      "د</w>"
    ],
    [
      "ذری",
      "عہ</w>"
    ],
    [
      "است",
      "عمال</w>"
    ],
    [
      "طر",
      "ف</w>"
    ],
    [
      "ام",
      "ری"
    ],
    [
      "ب",
      "غیر</w>"
    ],
    [
      "ب",
      "جایے</w>"
    ],
    [
      "ع",
      "جیب</w>"
    ],
    [
      "د",
      "ے</w>"
    ],
    [
      "ج",
      "ر"
    ],
    [
      "ش",
      "و</w>"
    ],
    [
      "لی",
      "س</w>"
    ],
    [
      "c",
      "ho"
    ],
    [
      "la",
      "kin</w>"
    ],
    [
      "cha",
      "h"
    ],
    [
      "ti",
      "on</w>"
    ],
    [
      "ہمی",
      "شہ</w>"
    ],
    [
      "ٹ",
      "ن</w>"
    ],
    [
      "ب",
      "ہ</w>"
    ],
    [
      "ت",
      "لا"
    ],
    [
      "پ",
      "رو"
    ],
    [
      "un",
      "kay</w>"
    ],
    [
      "ت",
      "قری"
    ],
    [
      "ہار",
      "ر</w>"
    ],
    [
      "b",
      "hot</w>"
    ],
    [
      "s",
      "i</w>"
    ],
    [
      "آ",
      "یا</w>"
    ],
    [
      "مع",
      "مو"
    ],
    [
      "خ",
      "صو"
    ],
    [
      "ح",
      "ر"
    ],
    [
      "ziya",
      "da</w>"
    ],
    [
      "ف",
      "ت"
    ],
    [
      "ژ",
      "ن</w>"
    ],
    [
      "نا",
      "م</w>"
    ],
    [
      "mu",
      "ta"
    ],
    [
      "ح",
      "اصل</w>"
    ],
    [
      "ضر",
      "ورت</w>"
    ],
    [
      "دو",
      "نوں</w>"
    ],
    [
      "k",
      "isi</w>"
    ],
    [
      "تفری",
      "ح</w>"
    ],
    [
      "اخت",
      "ت"
    ],
    [
      "ا",
      "پ</w>"
    ],
    [
      "س",
      "ٹ</w>"
    ],
    [
      "ٹ",
      "س</w>"
    ],
    [
      "g",
      "u"
    ],
    [
      "is",
      "ta"
    ],
    [
      "معلو",
      "م</w>"
    ],
    [
      "ن",
      "ق"
    ],
    [
      "گ",
      "ر</w>"
    ],
    [
      "تی",
      "ن</w>"
    ],
    [
      "co",
      "m"
    ],
    [
      "sak",
      "ta</w>"
    ],
    [
      "m",
      "a</w>"
    ],
    [
      "shir",
      "ts</w>"
    ],
    [
      "پریش",
      "ان</w>"
    ],
    [
      "آ",
      "ی"
    ],
    [
      "s",
      "oo"
    ],
    [
      "khu",
      "sh</w>"
    ],
    [
      "l",
      "l</w>"
    ],
    [
      "ج",
      "ان</w>"
    ],
    [
      "حی",
      "ث"
    ],
    [
      "پر",
      "فار"
    ],
    [
      "mut",
      "ma"
    ],
    [
      "حیث",
      "یت</w>"
    ],
    [
      "م",
      "ذ"
    ],
    [
      "hu",
      "a</w>"
    ],
    [
      "ش",
      "اند"
    ],
    [
      "گ",
      "وار</w>"
    ],
    [
      "خصو",
      "ص"
    ],
    [
      "r",
      "s</w>"
    ],
    [
      "ta",
      "r</w>"
    ],
    [
      "le",
      "ha"
    ],
    [
      "سی",
      "ری"
    ],
    [
      "وق",
      "ع</w>"
    ],
    [
      "hi",
      "r</w>"
    ],
    [
      "چی",
      "ز"
    ],
    [
      "ہ",
      "ر"
    ],
    [
      "b",
      "i</w>"
    ],
    [
      "م",
      "ار</w>"
    ],
    [
      "ص",
      "لا"
    ],
    [
      "ب",
      "اہر</w>"
    ],
    [
      "s",
      "s</w>"
    ],
    [
      "f",
      "i"
    ],
    [
      "ل",
      "و</w>"
    ],
    [
      "ma",
      "n"
    ],
    [
      "te",
      "r</w>"
    ],
    [
      "produ",
      "ct</w>"
    ],
    [
      "ب",
      "ج"
    ],
    [
      "ف",
      "و"
    ],
    [
      "ma",
      "l</w>"
    ],
    [
      "b",
      "ac"
    ],
    [
      "اداک",
      "اروں</w>"
    ],
    [
      "پرفار",
      "من"
    ],
    [
      "ب",
      "ت"
    ],
    [
      "ٹ",
      "ا</w>"
    ],
    [
      "me",
      "h"
    ],
    [
      "is",
      "se</w>"
    ],
    [
      "a",
      "ya</w>"
    ],
    [
      "کہ",
      "نا</w>"
    ],
    [
      "علا",
      "وہ</w>"
    ],
    [
      "ن",
      "س"
    ],
    [
      "ن",
      "چ"
    ],
    [
      "z",
      "i"
    ],
    [
      "ا",
      "ق</w>"
    ],
    [
      "ja",
      "ta</w>"
    ],
    [
      "b",
      "aat</w>"
    ],
    [
      "تھو",
      "ڑا</w>"
    ],
    [
      "تح",
      "ری"
    ],
    [
      "نا",
      "قص</w>"
    ],
    [
      "صلا",
      "حی"
    ],
    [
      "ta",
      "k</w>"
    ],
    [
      "la",
      "h</w>"
    ],
    [
      "z",
      "ar</w>"
    ],
    [
      "ان",
      "ہوں</w>"
    ],
    [
      "asa",
      "n</w>"
    ],
    [
      "ت",
      "اری"
    ],
    [
      "ky",
      "unkay</w>"
    ],
    [
      "تقری",
      "با</w>"
    ],
    [
      "پرفارمن",
      "س</w>"
    ],
    [
      "g",
      "i"
    ],
    [
      "ذ",
      "ا</w>"
    ],
    [
      "d",
      "e</w>"
    ],
    [
      "د",
      "ار</w>"
    ],
    [
      "حص",
      "ہ</w>"
    ],
    [
      "اسکر",
      "ین</w>"
    ],
    [
      "ہدای",
      "ت</w>"
    ],
    [
      "گھ",
      "نٹ"
    ],
    [
      "اختت",
      "ام</w>"
    ],
    [
      "لہ",
      "ذا</w>"
    ],
    [
      "ن",
      "ظ"
    ],
    [
      "aa",
      "s</w>"
    ],
    [
      "ڈ",
      "ال"
    ],
    [
      "b",
      "ara"
    ],
    [
      "در",
      "جہ</w>"
    ],
    [
      "ri",
      "ce</w>"
    ],
    [
      "تلا",
      "ش</w>"
    ],
    [
      "شاند",
      "ار</w>"
    ],
    [
      "ا",
      "ف</w>"
    ],
    [
      "ص",
      "ر</w>"
    ],
    [
      "ری",
      "ب</w>"
    ],
    [
      "ح",
      "ال"
    ],
    [
      "ج",
      "ہاں</w>"
    ],
    [
      "ج",
      "اتے</w>"
    ],
    [
      "f",
      "e"
    ],
    [
      "بی",
      "وقوف</w>"
    ],
    [
      "ج",
      "ھ"
    ],
    [
      "ش",
      "و"
    ],
    [
      "e",
      "x"
    ],
    [
      "گ",
      "را"
    ],
    [
      "t",
      "he</w>"
    ],
    [
      "م",
      "قاب"
    ],
    [
      "کت",
      "اب</w>"
    ],
    [
      "کل",
      "اس"
    ],
    [
      "ج",
      "اسک"
    ],
    [
      "ٹ",
      "ک"
    ],
    [
      "ان",
      "س"
    ],
    [
      "ee",
      "r</w>"
    ],
    [
      "مر",
      "ک"
    ],
    [
      "مای",
      "وس</w>"
    ],
    [
      "u",
      "s</w>"
    ],
    [
      "ل",
      "ر</w>"
    ],
    [
      "آ",
      "نے</w>"
    ],
    [
      "k",
      "ha</w>"
    ],
    [
      "با",
      "قی</w>"
    ],
    [
      "ت",
      "و"
    ],
    [
      "س",
      "اس</w>"
    ],
    [
      "f",
      "ar"
    ],
    [
      "ma",
      "in</w>"
    ],
    [
      "وا",
      "ز</w>"
    ],
    [
      "ب",
      "نا</w>"
    ],
    [
      "ان",
      "دو"
    ],
    [
      "و",
      "ہاں</w>"
    ],
    [
      "a",
      "nd</w>"
    ],
    [
      "کر",
      "دیا</w>"
    ],
    [
      "خوش",
      "ی</w>"
    ],
    [
      "see",
      "l</w>"
    ],
    [
      "سیری",
      "ز</w>"
    ],
    [
      "غ",
      "ریب</w>"
    ],
    [
      "ع",
      "ی</w>"
    ],
    [
      "ن",
      "ک"
    ],
    [
      "ت",
      "ہ</w>"
    ],
    [
      "س",
      "ای"
    ],
    [
      "ب",
      "ور</w>"
    ],
    [
      "la",
      "t</w>"
    ],
    [
      "ل",
      "گی</w>"
    ],
    [
      "انت",
      "ظ"
    ],
    [
      "بڑ",
      "ے</w>"
    ],
    [
      "shu",
      "kr"
    ],
    [
      "کامی",
      "ڈی</w>"
    ],
    [
      "اندو",
      "ز</w>"
    ],
    [
      "د",
      "ن</w>"
    ],
    [
      "کر",
      "وں</w>"
    ],
    [
      "s",
      "aa"
    ],
    [
      "kha",
      "ra"
    ],
    [
      "واقع",
      "تا</w>"
    ],
    [
      "kar",
      "te</w>"
    ],
    [
      "t",
      "ing</w>"
    ],
    [
      "آ",
      "یی</w>"
    ],
    [
      "ل",
      "ک"
    ],
    [
      "ک",
      "ن"
    ],
    [
      "ج",
      "ذ"
    ],
    [
      "d",
      "ar</w>"
    ],
    [
      "خ",
      "لا"
    ],
    [
      "pa",
      "k"
    ],
    [
      "da",
      "h</w>"
    ],
    [
      "بن",
      "دی</w>"
    ],
    [
      "لط",
      "ی"
    ],
    [
      "ش",
      "ن</w>"
    ],
    [
      "o",
      "n"
    ],
    [
      "پ",
      "ھ"
    ],
    [
      "س",
      "ر</w>"
    ],
    [
      "ڈ",
      "و"
    ],
    [
      "b",
      "ha"
    ],
    [
      "me",
      "e"
    ],
    [
      "بی",
      "ن</w>"
    ],
    [
      "t",
      "ara"
    ],
    [
      "قری",
      "ب</w>"
    ],
    [
      "ag",
      "ar</w>"
    ],
    [
      "د",
      "نیا</w>"
    ],
    [
      "تص",
      "ویر</w>"
    ],
    [
      "j",
      "u"
    ],
    [
      "ض",
      "ح</w>"
    ],
    [
      "peh",
      "lay</w>"
    ],
    [
      "مخت",
      "لف</w>"
    ],
    [
      "ت",
      "وقع</w>"
    ],
    [
      "p",
      "rice</w>"
    ],
    [
      "shukr",
      "iya</w>"
    ],
    [
      "وا",
      "ضح</w>"
    ],
    [
      "*",
      "*"
    ],
    [
      "ل",
      "ن</w>"
    ],
    [
      "j",
      "e"
    ],
    [
      "س",
      "خ"
    ],
    [
      "ج",
      "ن</w>"
    ],
    [
      "ن",
      "ف"
    ],
    [
      "د",
      "یں</w>"
    ],
    [
      "کر",
      "ی"
    ],
    [
      "it",
      "ni</w>"
    ],
    [
      "ke",
      "r</w>"
    ],
    [
      "سمج",
      "ھ"
    ],
    [
      "ل",
      "م"
    ],
    [
      "t",
      "h"
    ],
    [
      "q",
      "a</w>"
    ],
    [
      "کی",
      "سے</w>"
    ],
    [
      "r",
      "ha</w>"
    ],
    [
      "م",
      "تی</w>"
    ],
    [
      "پسن",
      "دی"
    ],
    [
      "ڈی",
      "و"
    ],
    [
      "ل",
      "مح"
    ],
    [
      "تی",
      "ار</w>"
    ],
    [
      "ظ",
      "اہر</w>"
    ],
    [
      "اع",
      "ت"
    ],
    [
      "ج",
      "ی</w>"
    ],
    [
      "ق",
      "ہ</w>"
    ],
    [
      "s",
      "ar"
    ],
    [
      "qa",
      "b"
    ],
    [
      "س",
      "از"
    ],
    [
      "a",
      "d"
    ],
    [
      "ب",
      "س</w>"
    ],
    [
      "p",
      "u"
    ],
    [
      "ta",
      "s"
    ],
    [
      "ف",
      "را"
    ],
    [
      "la",
      "g</w>"
    ],
    [
      "f",
      "il"
    ],
    [
      "co",
      "n"
    ],
    [
      "مک",
      "ال"
    ],
    [
      "اف",
      "سوس</w>"
    ],
    [
      "وا",
      "پس</w>"
    ],
    [
      "tar",
      "seel</w>"
    ],
    [
      "ن",
      "ٹ</w>"
    ],
    [
      "ف",
      "ر</w>"
    ],
    [
      "ف",
      "ای"
    ],
    [
      "دی",
      "نے</w>"
    ],
    [
      "ta",
      "j"
    ],
    [
      "مو",
      "سی"
    ],
    [
      "li",
      "f</w>"
    ],
    [
      "da",
      "y</w>"
    ],
    [
      "مع",
      "ی"
    ],
    [
      "ke",
      "t</w>"
    ],
    [
      "ap",
      "ni</w>"
    ],
    [
      "آخ",
      "ری</w>"
    ],
    [
      "جوا",
      "ن</w>"
    ],
    [
      "آ",
      "تا</w>"
    ],
    [
      "is",
      "ki</w>"
    ],
    [
      "و",
      "سی</w>"
    ],
    [
      "سن",
      "ی"
    ],
    [
      "ke",
      "r"
    ],
    [
      "kh",
      "ta"
    ],
    [
      "آ",
      "گے</w>"
    ],
    [
      "a",
      "a</w>"
    ],
    [
      "n",
      "o</w>"
    ],
    [
      "ق",
      "ت"
    ],
    [
      "k",
      "ho"
    ],
    [
      "ba",
      "t"
    ],
    [
      "پ",
      "ڑا</w>"
    ],
    [
      "د",
      "ہایی</w>"
    ],
    [
      "قس",
      "م</w>"
    ],
    [
      "khara",
      "b</w>"
    ],
    [
      "پسندی",
      "دہ</w>"
    ],
    [
      "v",
      "e</w>"
    ],
    [
      "p",
      "l"
    ],
    [
      "ta",
      "b"
    ],
    [
      "hu",
      "e</w>"
    ],
    [
      "خو",
      "ش</w>"
    ],
    [
      "ن",
      "دہ</w>"
    ],
    [
      "آد",
      "می</w>"
    ],
    [
      "ت",
      "اہم</w>"
    ],
    [
      "pak",
      "ista"
    ],
    [
      "س",
      "ا"
    ],
    [
      "ص",
      "ن"
    ],
    [
      "چ",
      "ے</w>"
    ],
    [
      "گ",
      "ز"
    ],
    [
      "ل",
      "ط</w>"
    ],
    [
      "ای",
      "ن</w>"
    ],
    [
      "کر",
      "س"
    ],
    [
      "ر",
      "وں</w>"
    ],
    [
      "ب",
      "لی"
    ],
    [
      "زی",
      "د</w>"
    ],
    [
      "ب",
      "ڑا</w>"
    ],
    [
      "bar",
      "a</w>"
    ],
    [
      "ت",
      "ش"
    ],
    [
      "چ",
      "و"
    ],
    [
      "د",
      "د</w>"
    ],
    [
      "ل",
      "ڈ</w>"
    ],
    [
      "ra",
      "hi</w>"
    ],
    [
      "b",
      "he"
    ],
    [
      "رو",
      "مان"
    ],
    [
      "lag",
      "ta</w>"
    ],
    [
      "mu",
      "khta"
    ],
    [
      "م",
      "ے</w>"
    ],
    [
      "ن",
      "ز</w>"
    ],
    [
      "ای",
      "سے</w>"
    ],
    [
      "aa",
      "c"
    ],
    [
      "پ",
      "ور"
    ],
    [
      "hu",
      "i</w>"
    ],
    [
      "چھو",
      "ڑ</w>"
    ],
    [
      "قی",
      "مت</w>"
    ],
    [
      "وا",
      "حد</w>"
    ],
    [
      "ہو",
      "سکتی</w>"
    ],
    [
      "ور",
      "ژن</w>"
    ],
    [
      "موسی",
      "قی</w>"
    ],
    [
      "غ",
      "لط</w>"
    ],
    [
      "م",
      "زید</w>"
    ],
    [
      "p",
      "r"
    ],
    [
      "i",
      "z</w>"
    ],
    [
      "ح",
      "ق</w>"
    ],
    [
      "ha",
      "l"
    ],
    [
      "لی",
      "ف</w>"
    ],
    [
      "ma",
      "z"
    ],
    [
      "آ",
      "تی</w>"
    ],
    [
      "is",
      "ko</w>"
    ],
    [
      "س",
      "اری</w>"
    ],
    [
      "kha",
      "n</w>"
    ],
    [
      "f",
      "or"
    ],
    [
      "تھ",
      "یں</w>"
    ],
    [
      "لای",
      "ن</w>"
    ],
    [
      "پو",
      "لیس</w>"
    ],
    [
      "اح",
      "ساس</w>"
    ],
    [
      "aac",
      "cha</w>"
    ],
    [
      "y",
      "o"
    ],
    [
      "ہو",
      "تے</w>"
    ],
    [
      "ba",
      "d</w>"
    ],
    [
      "mu",
      "na"
    ],
    [
      "مو",
      "ق"
    ],
    [
      "ست",
      "ہ</w>"
    ],
    [
      "ہو",
      "جاتا</w>"
    ],
    [
      "دوس",
      "ری</w>"
    ],
    [
      "از",
      "ہ</w>"
    ],
    [
      "معمو",
      "لی</w>"
    ],
    [
      "ساز",
      "ش</w>"
    ],
    [
      "ا",
      "ہ</w>"
    ],
    [
      "ج",
      "ے</w>"
    ],
    [
      "ل",
      "ب</w>"
    ],
    [
      "ba",
      "t</w>"
    ],
    [
      "a",
      "bhi</w>"
    ],
    [
      "س",
      "ل"
    ],
    [
      "م",
      "ث"
    ],
    [
      "e",
      "k</w>"
    ],
    [
      "ن",
      "ک</w>"
    ],
    [
      "m",
      "j"
    ],
    [
      "ای",
      "ل</w>"
    ],
    [
      "ج",
      "ار"
    ],
    [
      "خ",
      "ری"
    ],
    [
      "h",
      "is"
    ],
    [
      "فلم",
      "ی</w>"
    ],
    [
      "پر",
      "ست"
    ],
    [
      "چھو",
      "ٹی</w>"
    ],
    [
      "س",
      "س"
    ],
    [
      "ڈ",
      "ر"
    ],
    [
      "e",
      "s</w>"
    ],
    [
      "ٹ",
      "ے</w>"
    ],
    [
      "ہ",
      "میں</w>"
    ],
    [
      "w",
      "ar"
    ],
    [
      "می",
      "و"
    ],
    [
      "t",
      "hi"
    ],
    [
      "مرک",
      "زی</w>"
    ],
    [
      "ک",
      "ا"
    ],
    [
      "ت",
      "ا"
    ],
    [
      "l",
      "u"
    ],
    [
      "ba",
      "n"
    ],
    [
      "کو",
      "ن</w>"
    ],
    [
      "ب",
      "ھو"
    ],
    [
      "t",
      "han"
    ],
    [
      "مذ",
      "اق</w>"
    ],
    [
      "mukhta",
      "lif</w>"
    ],
    [
      "e",
      "n"
    ],
    [
      "ر",
      "ح"
    ],
    [
      "k",
      "s</w>"
    ],
    [
      "کی",
      "م"
    ],
    [
      "س",
      "ال"
    ],
    [
      "ba",
      "h</w>"
    ],
    [
      "t",
      "oo"
    ],
    [
      "si",
      "l</w>"
    ],
    [
      "si",
      "b</w>"
    ],
    [
      "جی",
      "سا</w>"
    ],
    [
      "muna",
      "sib</w>"
    ],
    [
      "ان",
      "ج"
    ],
    [
      "وی",
      "ل</w>"
    ],
    [
      "p",
      "oo"
    ],
    [
      "l",
      "on</w>"
    ],
    [
      "k",
      "ing</w>"
    ],
    [
      "جان",
      "تا</w>"
    ],
    [
      "تص",
      "ور</w>"
    ],
    [
      "zar",
      "oo"
    ],
    [
      "برا",
      "ہ</w>"
    ],
    [
      "موق",
      "ع</w>"
    ],
    [
      "l",
      "o</w>"
    ],
    [
      "ج",
      "ا</w>"
    ],
    [
      "ط",
      "ری"
    ],
    [
      "پی",
      "ار</w>"
    ],
    [
      "کہ",
      "ا</w>"
    ],
    [
      "k",
      "he"
    ],
    [
      "b",
      "aar</w>"
    ],
    [
      "wa",
      "li</w>"
    ],
    [
      "و",
      "جود</w>"
    ],
    [
      "وو",
      "ڈ</w>"
    ],
    [
      "mutma",
      "en</w>"
    ],
    [
      "تک",
      "لیف</w>"
    ],
    [
      "ک",
      "م"
    ],
    [
      "ع",
      "ل"
    ],
    [
      "م",
      "ہ"
    ],
    [
      "ج",
      "ل"
    ],
    [
      "ج",
      "ای"
    ],
    [
      "ان",
      "ہیں</w>"
    ],
    [
      "دی",
      "تی</w>"
    ],
    [
      "مج",
      "مو"
    ],
    [
      "ka",
      "m"
    ],
    [
      "ra",
      "hay</w>"
    ],
    [
      "بن",
      "ایی</w>"
    ],
    [
      "ٹری",
      "ک</w>"
    ],
    [
      "تھی",
      "ٹر</w>"
    ],
    [
      "a",
      "m</w>"
    ],
    [
      "آ",
      "ج</w>"
    ],
    [
      "ہ",
      "ور</w>"
    ],
    [
      "کر",
      "ے</w>"
    ],
    [
      "ma",
      "i</w>"
    ],
    [
      "k",
      "ee"
    ],
    [
      "s",
      "ta"
    ],
    [
      "ga",
      "i</w>"
    ],
    [
      "مح",
      "ض</w>"
    ],
    [
      "بن",
      "ایا</w>"
    ],
    [
      "ج",
      "اییں</w>"
    ],
    [
      "دو",
      "ران</w>"
    ],
    [
      "بل",
      "کہ</w>"
    ],
    [
      "تب",
      "دی"
    ],
    [
      "بنی",
      "ادی</w>"
    ],
    [
      "چیز",
      "یں</w>"
    ],
    [
      "بج",
      "ٹ</w>"
    ],
    [
      "سنی",
      "ما</w>"
    ],
    [
      "م",
      "ظ"
    ],
    [
      "ل",
      "ف"
    ],
    [
      "ن",
      "و</w>"
    ],
    [
      "ان",
      "وں</w>"
    ],
    [
      "ا",
      "تا</w>"
    ],
    [
      "ma",
      "m</w>"
    ],
    [
      "م",
      "وا"
    ],
    [
      "cha",
      "r"
    ],
    [
      "ho",
      "ti</w>"
    ],
    [
      "ga",
      "me</w>"
    ],
    [
      "جن",
      "سی</w>"
    ],
    [
      "b",
      "ht</w>"
    ],
    [
      "مت",
      "اثر</w>"
    ],
    [
      "d",
      "u</w>"
    ],
    [
      "u",
      "m"
    ],
    [
      "p",
      "p"
    ],
    [
      "ذ",
      "ہ"
    ],
    [
      "b",
      "a</w>"
    ],
    [
      "t",
      "on</w>"
    ],
    [
      "mas",
      "la</w>"
    ],
    [
      "لڑ",
      "کی</w>"
    ],
    [
      "ter",
      "y</w>"
    ],
    [
      "ضر",
      "ور</w>"
    ],
    [
      "دلچس",
      "پی</w>"
    ],
    [
      "tho",
      "ra</w>"
    ],
    [
      "ja",
      "isay</w>"
    ],
    [
      "soo",
      "s</w>"
    ],
    [
      "مط",
      "لب</w>"
    ],
    [
      "ب",
      "ر</w>"
    ],
    [
      "ای",
      "س</w>"
    ],
    [
      "ت",
      "وں</w>"
    ],
    [
      "دیکھ",
      "و</w>"
    ],
    [
      "ج",
      "اری</w>"
    ],
    [
      "عم",
      "ل</w>"
    ],
    [
      "ک",
      "مز"
    ],
    [
      "wa",
      "la</w>"
    ],
    [
      "ڈرا",
      "مہ</w>"
    ],
    [
      "na",
      "zar</w>"
    ],
    [
      "آ",
      "واز</w>"
    ],
    [
      "نی",
      "چے</w>"
    ],
    [
      "ک",
      "ش</w>"
    ],
    [
      "g",
      "o"
    ],
    [
      "e",
      "y</w>"
    ],
    [
      "ف",
      "ے</w>"
    ],
    [
      "ج",
      "ت"
    ],
    [
      "aa",
      "n</w>"
    ],
    [
      "ma",
      "j"
    ],
    [
      "ر",
      "اس"
    ],
    [
      "ja",
      "l"
    ],
    [
      "د",
      "گی</w>"
    ],
    [
      "ga",
      "ye</w>"
    ],
    [
      "ہن",
      "سی</w>"
    ],
    [
      "di",
      "a</w>"
    ],
    [
      "do",
      "s"
    ],
    [
      "کت",
      "نا</w>"
    ],
    [
      "ce",
      "r</w>"
    ],
    [
      "خوش",
      "گوار</w>"
    ],
    [
      "مخت",
      "صر</w>"
    ],
    [
      "نو",
      "جوان</w>"
    ],
    [
      "a",
      "t</w>"
    ],
    [
      "ن",
      "ش"
    ],
    [
      "ج",
      "گ"
    ],
    [
      "وا",
      "ہ</w>"
    ],
    [
      "وی",
      "ی</w>"
    ],
    [
      "پی",
      "چ"
    ],
    [
      "si",
      "r</w>"
    ],
    [
      "یقی",
      "نا</w>"
    ],
    [
      "ہن",
      "س</w>"
    ],
    [
      "کر",
      "سکتے</w>"
    ],
    [
      "ہ",
      "الی</w>"
    ],
    [
      "وال",
      "وں</w>"
    ],
    [
      "صلاحی",
      "ت</w>"
    ],
    [
      "ص",
      "د</w>"
    ],
    [
      "پ",
      "ل"
    ],
    [
      "a",
      "p</w>"
    ],
    [
      "c",
      "u"
    ],
    [
      "ک",
      "ٹ</w>"
    ],
    [
      "ان",
      "ی"
    ],
    [
      "پ",
      "ار"
    ],
    [
      "ر",
      "ار</w>"
    ],
    [
      "ra",
      "l</w>"
    ],
    [
      "le",
      "a"
    ],
    [
      "c",
      "hi"
    ],
    [
      "ام",
      "ی</w>"
    ],
    [
      "pe",
      "r"
    ],
    [
      "da",
      "st</w>"
    ],
    [
      "تع",
      "ل"
    ],
    [
      "انتظ",
      "ار</w>"
    ],
    [
      "قس",
      "متی</w>"
    ],
    [
      "pakista",
      "n</w>"
    ],
    [
      "ن",
      "د</w>"
    ],
    [
      "س",
      "ہ</w>"
    ],
    [
      "چ",
      "ل</w>"
    ],
    [
      "ا",
      "ے</w>"
    ],
    [
      "آ",
      "ہ"
    ],
    [
      "ار",
      "ڈ</w>"
    ],
    [
      "g",
      "ra"
    ],
    [
      "وی",
      "ز</w>"
    ],
    [
      "h",
      "ta</w>"
    ],
    [
      "ba",
      "na"
    ],
    [
      "g",
      "ya</w>"
    ],
    [
      "f",
      "it"
    ],
    [
      "ک",
      "ٹر</w>"
    ],
    [
      "kar",
      "en</w>"
    ],
    [
      "ve",
      "ry</w>"
    ],
    [
      "me",
      "ine</w>"
    ],
    [
      "صن",
      "ف</w>"
    ],
    [
      "meh",
      "soos</w>"
    ],
    [
      "کمز",
      "ور</w>"
    ],
    [
      "ق",
      "ل</w>"
    ],
    [
      "ل",
      "یں</w>"
    ],
    [
      "ڈ",
      "ای"
    ],
    [
      "ج",
      "سے</w>"
    ],
    [
      "na",
      "l</w>"
    ],
    [
      "g",
      "ar</w>"
    ],
    [
      "مج",
      "ھ</w>"
    ],
    [
      "کہ",
      "ہ</w>"
    ],
    [
      "سی",
      "ٹ</w>"
    ],
    [
      "ٹ",
      "نگ</w>"
    ],
    [
      "جان",
      "ا</w>"
    ],
    [
      "g",
      "ht</w>"
    ],
    [
      "ہم",
      "ارے</w>"
    ],
    [
      "chah",
      "iye</w>"
    ],
    [
      "خوا",
      "تین</w>"
    ],
    [
      "جاسک",
      "تا</w>"
    ],
    [
      "ta",
      "mam</w>"
    ],
    [
      "ط",
      "ہ</w>"
    ],
    [
      "a",
      "b"
    ],
    [
      "م",
      "م"
    ],
    [
      "غ",
      "ی"
    ],
    [
      "ٹ",
      "ای"
    ],
    [
      "b",
      "hai</w>"
    ],
    [
      "g",
      "ar"
    ],
    [
      "ta",
      "q</w>"
    ],
    [
      "ra",
      "n</w>"
    ],
    [
      "و",
      "ہی</w>"
    ],
    [
      "دیکھ",
      "تے</w>"
    ],
    [
      "آ",
      "یے</w>"
    ],
    [
      "za",
      "bar"
    ],
    [
      "gha",
      "r</w>"
    ],
    [
      "حص",
      "ے</w>"
    ],
    [
      "امری",
      "کی</w>"
    ],
    [
      "beh",
      "tar</w>"
    ],
    [
      "p",
      "hir</w>"
    ],
    [
      "گھنٹ",
      "ے</w>"
    ],
    [
      "انج",
      "ام</w>"
    ],
    [
      "bat",
      "tery</w>"
    ],
    [
      "a",
      "s"
    ],
    [
      "ع",
      "ظ"
    ],
    [
      "ٹ",
      "و</w>"
    ],
    [
      "ز",
      "ک</w>"
    ],
    [
      "س",
      "لی"
    ],
    [
      "d",
      "ee"
    ],
    [
      "p",
      "la"
    ],
    [
      "li",
      "ne</w>"
    ],
    [
      "he",
      "n</w>"
    ],
    [
      "م",
      "لا</w>"
    ],
    [
      "لڑ",
      "کے</w>"
    ],
    [
      "c",
      "k</w>"
    ],
    [
      "ب",
      "ری"
    ],
    [
      "وا",
      "ن</w>"
    ],
    [
      "را",
      "د</w>"
    ],
    [
      "bo",
      "o"
    ],
    [
      "c",
      "hu"
    ],
    [
      "سن",
      "جی"
    ],
    [
      "s",
      "ti"
    ],
    [
      "گ",
      "ھر</w>"
    ],
    [
      "e",
      "ay</w>"
    ],
    [
      "bu",
      "ra</w>"
    ],
    [
      "p",
      "ur"
    ],
    [
      "he",
      "rat</w>"
    ],
    [
      "خصوص",
      "ی</w>"
    ],
    [
      "ما",
      "بین</w>"
    ],
    [
      "qab",
      "il</w>"
    ],
    [
      "taj",
      "ur"
    ],
    [
      "معی",
      "ار</w>"
    ],
    [
      "پرست",
      "ار</w>"
    ],
    [
      "مظ",
      "اہ"
    ],
    [
      "آہ",
      "ستہ</w>"
    ],
    [
      "اف",
      "راد</w>"
    ],
    [
      "d",
      "d</w>"
    ],
    [
      "ھ",
      "یں</w>"
    ],
    [
      "ل",
      "وں</w>"
    ],
    [
      "b",
      "ar</w>"
    ],
    [
      "دی",
      "تے</w>"
    ],
    [
      "hu",
      "m</w>"
    ],
    [
      "ja",
      "h</w>"
    ],
    [
      "لی",
      "نڈ</w>"
    ],
    [
      "ma",
      "ine</w>"
    ],
    [
      "سخ",
      "ت</w>"
    ],
    [
      "thi",
      "s</w>"
    ],
    [
      "ر",
      "ک"
    ],
    [
      "ی",
      "م</w>"
    ],
    [
      "ا",
      "و</w>"
    ],
    [
      "ح",
      "ی</w>"
    ],
    [
      "a",
      "w"
    ],
    [
      "o",
      "f</w>"
    ],
    [
      "لی",
      "نے</w>"
    ],
    [
      "کی",
      "ی</w>"
    ],
    [
      "ات",
      "نے</w>"
    ],
    [
      "خ",
      "ات"
    ],
    [
      "bo",
      "t</w>"
    ],
    [
      "j",
      "oo"
    ],
    [
      "ز",
      "دہ</w>"
    ],
    [
      "ل",
      "گا</w>"
    ],
    [
      "دو",
      "ست"
    ],
    [
      "ب",
      "ھی"
    ],
    [
      "اص",
      "لی</w>"
    ],
    [
      "li",
      "ay</w>"
    ],
    [
      "ضر",
      "وری</w>"
    ],
    [
      "al",
      "lah</w>"
    ],
    [
      "مظاہ",
      "رہ</w>"
    ],
    [
      "د",
      "ا"
    ],
    [
      "ہ",
      "ا</w>"
    ],
    [
      "و",
      "ٹ</w>"
    ],
    [
      "g",
      "n</w>"
    ],
    [
      "آ",
      "ف</w>"
    ],
    [
      "f",
      "oo"
    ],
    [
      "oo",
      "l</w>"
    ],
    [
      "be",
      "r</w>"
    ],
    [
      "گھ",
      "ٹ"
    ],
    [
      "ja",
      "isa</w>"
    ],
    [
      "g",
      "ood</w>"
    ],
    [
      "muta",
      "bi"
    ],
    [
      "ز",
      "ندہ</w>"
    ],
    [
      "k",
      "r</w>"
    ],
    [
      "z",
      "i</w>"
    ],
    [
      "ha",
      "m"
    ],
    [
      "me",
      "r</w>"
    ],
    [
      "ری",
      "ف</w>"
    ],
    [
      "ho",
      "o"
    ],
    [
      "is",
      "ka</w>"
    ],
    [
      "ka",
      "p"
    ],
    [
      "سی",
      "کوی"
    ],
    [
      "ja",
      "ye</w>"
    ],
    [
      "ج",
      "نگ</w>"
    ],
    [
      "t",
      "ch</w>"
    ],
    [
      "ree",
      "n</w>"
    ],
    [
      "پڑ",
      "تا</w>"
    ],
    [
      "kharee",
      "da</w>"
    ],
    [
      "tajur",
      "bah</w>"
    ],
    [
      "ٹ",
      "ھ"
    ],
    [
      "گ",
      "ا"
    ],
    [
      "ع",
      "ن"
    ],
    [
      "ا",
      "ض"
    ],
    [
      "پ",
      "ن</w>"
    ],
    [
      "l",
      "t</w>"
    ],
    [
      "ل",
      "کی"
    ],
    [
      "wa",
      "s</w>"
    ],
    [
      "ka",
      "l</w>"
    ],
    [
      "پ",
      "اگ"
    ],
    [
      "ق",
      "ات</w>"
    ],
    [
      "س",
      "ست</w>"
    ],
    [
      "فی",
      "ص"
    ],
    [
      "wa",
      "lay</w>"
    ],
    [
      "رکھ",
      "نے</w>"
    ],
    [
      "kharee",
      "d"
    ],
    [
      "خوا",
      "ہ"
    ],
    [
      "با",
      "وجود</w>"
    ],
    [
      "مجمو",
      "عی</w>"
    ],
    [
      "zabar",
      "dast</w>"
    ],
    [
      "میو",
      "زک</w>"
    ],
    [
      "ش",
      "ا"
    ],
    [
      "p",
      "s</w>"
    ],
    [
      "د",
      "س</w>"
    ],
    [
      "ای",
      "ٹ</w>"
    ],
    [
      "aa",
      "j</w>"
    ],
    [
      "ta",
      "l"
    ],
    [
      "لا",
      "ت</w>"
    ],
    [
      "ت",
      "یز</w>"
    ],
    [
      "بی",
      "کار</w>"
    ],
    [
      "la",
      "ga</w>"
    ],
    [
      "tu",
      "re</w>"
    ],
    [
      "مد",
      "د</w>"
    ],
    [
      "فت",
      "ار</w>"
    ],
    [
      "قت",
      "ل</w>"
    ],
    [
      "چھو",
      "ٹے</w>"
    ],
    [
      "جگ",
      "ہ</w>"
    ],
    [
      "مق",
      "صد</w>"
    ],
    [
      "wa",
      "jah</w>"
    ],
    [
      "si",
      "gn</w>"
    ],
    [
      "ت",
      "خ"
    ],
    [
      "پ",
      "ک"
    ],
    [
      "لی",
      "ن</w>"
    ],
    [
      "ar",
      "i</w>"
    ],
    [
      "ee",
      "d</w>"
    ],
    [
      "t",
      "ee"
    ],
    [
      "ara",
      "y</w>"
    ],
    [
      "سو",
      "چ</w>"
    ],
    [
      "کو",
      "ل</w>"
    ],
    [
      "ja",
      "ti</w>"
    ],
    [
      "بچ",
      "ے</w>"
    ],
    [
      "ya",
      "t</w>"
    ],
    [
      "پڑ",
      "ے</w>"
    ],
    [
      "asa",
      "l</w>"
    ],
    [
      "pac",
      "k</w>"
    ],
    [
      "leha",
      "za</w>"
    ],
    [
      "پہ",
      "نچ"
    ],
    [
      "p",
      "aas</w>"
    ],
    [
      "ص",
      "اف</w>"
    ],
    [
      "عظ",
      "یم</w>"
    ],
    [
      "mutabi",
      "q</w>"
    ],
    [
      "ل",
      "س</w>"
    ],
    [
      "س",
      "ط"
    ],
    [
      "d",
      "is"
    ],
    [
      "aa",
      "sa"
    ],
    [
      "ق",
      "ات"
    ],
    [
      "می",
      "ک</w>"
    ],
    [
      "la",
      "i</w>"
    ],
    [
      "ا",
      "وہ</w>"
    ],
    [
      "پ",
      "اک"
    ],
    [
      "اب",
      "ت"
    ],
    [
      "اب",
      "ق</w>"
    ],
    [
      "رہ",
      "تا</w>"
    ],
    [
      "د",
      "ست"
    ],
    [
      "tar",
      "ee"
    ],
    [
      "su",
      "k"
    ],
    [
      "ش",
      "کار</w>"
    ],
    [
      "an",
      "ga"
    ],
    [
      "مل",
      "ک</w>"
    ],
    [
      "دکھ",
      "ایی</w>"
    ],
    [
      "مست",
      "حق</w>"
    ],
    [
      "f",
      "t</w>"
    ],
    [
      "ک",
      "ت</w>"
    ],
    [
      "ز",
      "ب"
    ],
    [
      "آ",
      "ن"
    ],
    [
      "s",
      "p"
    ],
    [
      "ڈ",
      "ر</w>"
    ],
    [
      "لی",
      "نا</w>"
    ],
    [
      "b",
      "la"
    ],
    [
      "د",
      "ان</w>"
    ],
    [
      "ho",
      "na</w>"
    ],
    [
      "با",
      "د</w>"
    ],
    [
      "p",
      "re"
    ],
    [
      "ون",
      "ڈ</w>"
    ],
    [
      "su",
      "n</w>"
    ],
    [
      "ra",
      "kh"
    ],
    [
      "بڑ",
      "ھ"
    ],
    [
      "ti",
      "me</w>"
    ],
    [
      "اداک",
      "ارہ</w>"
    ],
    [
      "ل",
      "نگ"
    ],
    [
      "ہدای",
      "ت"
    ],
    [
      "قد",
      "ر</w>"
    ],
    [
      "leha",
      "z</w>"
    ],
    [
      "تاری",
      "خ</w>"
    ],
    [
      "اند",
      "ازہ</w>"
    ],
    [
      "تفری",
      "حی</w>"
    ],
    [
      "پاگ",
      "ل</w>"
    ],
    [
      "de",
      "sign</w>"
    ],
    [
      "anga",
      "iz</w>"
    ],
    [
      "a",
      "f"
    ],
    [
      "ش",
      "ی</w>"
    ],
    [
      "n",
      "d"
    ],
    [
      "ق",
      "ے</w>"
    ],
    [
      "ر",
      "و</w>"
    ],
    [
      "م",
      "ن</w>"
    ],
    [
      "م",
      "ز</w>"
    ],
    [
      "c",
      "a</w>"
    ],
    [
      "f",
      "u"
    ],
    [
      "ha",
      "m</w>"
    ],
    [
      "کر",
      "و</w>"
    ],
    [
      "ان",
      "کہ</w>"
    ],
    [
      "لا",
      "نے</w>"
    ],
    [
      "مو",
      "ش</w>"
    ],
    [
      "l",
      "oo"
    ],
    [
      "l",
      "le"
    ],
    [
      "de",
      "ta</w>"
    ],
    [
      "بر",
      "ٹ</w>"
    ],
    [
      "a",
      "da</w>"
    ],
    [
      "نا",
      "کام</w>"
    ],
    [
      "دو",
      "ست</w>"
    ],
    [
      "بدت",
      "ر</w>"
    ],
    [
      "تش",
      "دد</w>"
    ],
    [
      "لطی",
      "فے</w>"
    ],
    [
      "بد",
      "قسمتی</w>"
    ],
    [
      "پاک",
      "ست"
    ],
    [
      "حال",
      "انکہ</w>"
    ],
    [
      "n",
      "g</w>"
    ],
    [
      "m",
      "s</w>"
    ],
    [
      "ٹ",
      "ک</w>"
    ],
    [
      "g",
      "h</w>"
    ],
    [
      "ض",
      "ی</w>"
    ],
    [
      "ڑ",
      "نے</w>"
    ],
    [
      "را",
      "م</w>"
    ],
    [
      "to",
      "h</w>"
    ],
    [
      "lo",
      "g"
    ],
    [
      "لڑ",
      "ایی</w>"
    ],
    [
      "khu",
      "d</w>"
    ],
    [
      "mil",
      "i</w>"
    ],
    [
      "ہی",
      "ن</w>"
    ],
    [
      "pi",
      "c"
    ],
    [
      "مکال",
      "مہ</w>"
    ],
    [
      "مث",
      "ال</w>"
    ],
    [
      "pac",
      "king</w>"
    ],
    [
      "گھٹ",
      "یا</w>"
    ],
    [
      "aasa",
      "ni</w>"
    ],
    [
      "suk",
      "oon</w>"
    ],
    [
      "ہدایت",
      "کار</w>"
    ],
    [
      "ی",
      "و"
    ],
    [
      "ف",
      "ا"
    ],
    [
      "a",
      "u"
    ],
    [
      "p",
      "h"
    ],
    [
      "ل",
      "ز</w>"
    ],
    [
      "ز",
      "ن</w>"
    ],
    [
      "c",
      "i"
    ],
    [
      "ی",
      "کی</w>"
    ],
    [
      "t",
      "aa"
    ],
    [
      "ha",
      "ha</w>"
    ],
    [
      "is",
      "ke</w>"
    ],
    [
      "ba",
      "s</w>"
    ],
    [
      "س",
      "نی</w>"
    ],
    [
      "de",
      "li"
    ],
    [
      "la",
      "ga"
    ],
    [
      "t",
      "ri"
    ],
    [
      "بو",
      "ط</w>"
    ],
    [
      "bar",
      "i</w>"
    ],
    [
      "س",
      "مت</w>"
    ],
    [
      "ve",
      "r"
    ],
    [
      "iya",
      "t</w>"
    ],
    [
      "a",
      "isa</w>"
    ],
    [
      "پی",
      "دا</w>"
    ],
    [
      "مقاب",
      "لے</w>"
    ],
    [
      "um",
      "dah</w>"
    ],
    [
      "on",
      "line</w>"
    ],
    [
      "سیکوی",
      "ل</w>"
    ],
    [
      "خواہ",
      "ش</w>"
    ],
    [
      "کلاس",
      "یکی</w>"
    ],
    [
      "i",
      "i</w>"
    ],
    [
      "u",
      "t</w>"
    ],
    [
      "q",
      "i</w>"
    ],
    [
      "ن",
      "ر</w>"
    ],
    [
      "پ",
      "ای"
    ],
    [
      "دی",
      "د</w>"
    ],
    [
      "مو",
      "ت</w>"
    ],
    [
      "ka",
      "bhi</w>"
    ],
    [
      "k",
      "hi"
    ],
    [
      "وق",
      "ات</w>"
    ],
    [
      "ن",
      "تی"
    ],
    [
      "ap",
      "p</w>"
    ],
    [
      "ne",
      "y</w>"
    ],
    [
      "n",
      "aram</w>"
    ],
    [
      "شر",
      "م</w>"
    ],
    [
      "بنی",
      "اد</w>"
    ],
    [
      "ت",
      "جر"
    ],
    [
      "پر",
      "واہ</w>"
    ],
    [
      "ث",
      "ر</w>"
    ],
    [
      "گ",
      "ل</w>"
    ],
    [
      "پ",
      "ت"
    ],
    [
      "f",
      "a</w>"
    ],
    [
      "گ",
      "و</w>"
    ],
    [
      "ٹ",
      "ل</w>"
    ],
    [
      "c",
      "ar"
    ],
    [
      "ma",
      "n</w>"
    ],
    [
      "م",
      "لی</w>"
    ],
    [
      "kha",
      "ri"
    ],
    [
      "w",
      "or"
    ],
    [
      "تر",
      "تی"
    ],
    [
      "ل",
      "مب"
    ],
    [
      "dar",
      "i</w>"
    ],
    [
      "nu",
      "me"
    ],
    [
      "کھی",
      "ل</w>"
    ],
    [
      "سام",
      "نے</w>"
    ],
    [
      "تبدی",
      "ل</w>"
    ],
    [
      "ا",
      "وقات</w>"
    ],
    [
      "nume",
      "ral</w>"
    ],
    [
      "ن",
      "چ</w>"
    ],
    [
      "ت",
      "ج"
    ],
    [
      "a",
      "s</w>"
    ],
    [
      "h",
      "in</w>"
    ],
    [
      "sa",
      "t"
    ],
    [
      "ل",
      "کھ"
    ],
    [
      "de",
      "s</w>"
    ],
    [
      "سی",
      "د"
    ],
    [
      "جی",
      "سی</w>"
    ],
    [
      "ga",
      "h</w>"
    ],
    [
      "بن",
      "نے</w>"
    ],
    [
      "ک",
      "نگ</w>"
    ],
    [
      "پ",
      "ھی"
    ],
    [
      "l",
      "iya</w>"
    ],
    [
      "ت",
      "وجہ</w>"
    ],
    [
      "مای",
      "ی"
    ],
    [
      "h",
      "wa</w>"
    ],
    [
      "تب",
      "صر"
    ],
    [
      "ط",
      "ویل</w>"
    ],
    [
      "پی",
      "سہ</w>"
    ],
    [
      "fit",
      "ting</w>"
    ],
    [
      "مم",
      "کن</w>"
    ],
    [
      "foo",
      "t</w>"
    ],
    [
      "a",
      "d</w>"
    ],
    [
      "s",
      "k"
    ],
    [
      "i",
      "m"
    ],
    [
      "س",
      "م"
    ],
    [
      "ر",
      "ک</w>"
    ],
    [
      "j",
      "o"
    ],
    [
      "ج",
      "ر</w>"
    ],
    [
      "س",
      "وں</w>"
    ],
    [
      "د",
      "وں</w>"
    ],
    [
      "ان",
      "ک</w>"
    ],
    [
      "و",
      "لی"
    ],
    [
      "q",
      "ar"
    ],
    [
      "ڈ",
      "ری"
    ],
    [
      "چ",
      "ار</w>"
    ],
    [
      "وی",
      "ن</w>"
    ],
    [
      "la",
      "ho"
    ],
    [
      "م",
      "نی</w>"
    ],
    [
      "پ",
      "لے</w>"
    ],
    [
      "ک",
      "اپ"
    ],
    [
      "ب",
      "طور</w>"
    ],
    [
      "بن",
      "د</w>"
    ],
    [
      "ku",
      "m</w>"
    ],
    [
      "او",
      "پر</w>"
    ],
    [
      "در",
      "می"
    ],
    [
      "کت",
      "نی</w>"
    ],
    [
      "haha",
      "ha</w>"
    ],
    [
      "د",
      "انہ</w>"
    ],
    [
      "جوا",
      "ب</w>"
    ],
    [
      "de",
      "kh</w>"
    ],
    [
      "سل",
      "س"
    ],
    [
      "ہ",
      "ل"
    ],
    [
      "a",
      "n</w>"
    ],
    [
      "m",
      "y</w>"
    ],
    [
      "ج",
      "م"
    ],
    [
      "s",
      "b</w>"
    ],
    [
      "ن",
      "ار"
    ],
    [
      "ار",
      "ا</w>"
    ],
    [
      "is",
      "e</w>"
    ],
    [
      "ma",
      "y"
    ],
    [
      "دی",
      "نا</w>"
    ],
    [
      "لا",
      "م</w>"
    ],
    [
      "ٹ",
      "ری</w>"
    ],
    [
      "کہ",
      "تے</w>"
    ],
    [
      "pa",
      "i"
    ],
    [
      "نی",
      "ی</w>"
    ],
    [
      "ح",
      "ال</w>"
    ],
    [
      "f",
      "ai"
    ],
    [
      "c",
      "hay</w>"
    ],
    [
      "جو",
      "ش</w>"
    ],
    [
      "za",
      "n</w>"
    ],
    [
      "اسٹ",
      "ار</w>"
    ],
    [
      "ga",
      "yi</w>"
    ],
    [
      "n",
      "aam</w>"
    ],
    [
      "vi",
      "ce</w>"
    ],
    [
      "pl",
      "z</w>"
    ],
    [
      "فیص",
      "لہ</w>"
    ],
    [
      "ر",
      "فتار</w>"
    ],
    [
      "si",
      "lai</w>"
    ],
    [
      "پاکست",
      "ان</w>"
    ],
    [
      "مض",
      "بوط</w>"
    ],
    [
      "ق",
      "ط"
    ],
    [
      "چ",
      "ا"
    ],
    [
      "ر",
      "ز</w>"
    ],
    [
      "د",
      "ر</w>"
    ],
    [
      "ع",
      "ر"
    ],
    [
      "f",
      "f</w>"
    ],
    [
      "sa",
      "m"
    ],
    [
      "ا",
      "وی"
    ],
    [
      "wa",
      "z</w>"
    ],
    [
      "مو",
      "ڑ</w>"
    ],
    [
      "دیکھ",
      "تا</w>"
    ],
    [
      "اد",
      "ری</w>"
    ],
    [
      "kha",
      "ya</w>"
    ],
    [
      "مع",
      "نی</w>"
    ],
    [
      "cha",
      "l"
    ],
    [
      "s",
      "aal</w>"
    ],
    [
      "ما",
      "د</w>"
    ],
    [
      "b",
      "le</w>"
    ],
    [
      "ال",
      "لہ</w>"
    ],
    [
      "ن",
      "مای"
    ],
    [
      "kaa",
      "mil</w>"
    ],
    [
      "da",
      "gi</w>"
    ],
    [
      "ach",
      "ch"
    ],
    [
      "تحری",
      "ر</w>"
    ],
    [
      "کلاس",
      "ک</w>"
    ],
    [
      "لمح",
      "ات</w>"
    ],
    [
      "فرا",
      "ہم</w>"
    ],
    [
      "fil",
      "m</w>"
    ],
    [
      "گ",
      "ویی</w>"
    ],
    [
      "پیچ",
      "ھے</w>"
    ],
    [
      "اس",
      "کول</w>"
    ],
    [
      "قات",
      "ل</w>"
    ],
    [
      "ت",
      "ھ</w>"
    ],
    [
      "a",
      "h"
    ],
    [
      "ر",
      "ق"
    ],
    [
      "ص",
      "ی"
    ],
    [
      "p",
      "k</w>"
    ],
    [
      "کر",
      "م</w>"
    ],
    [
      "ار",
      "ک</w>"
    ],
    [
      "ma",
      "d</w>"
    ],
    [
      "کی",
      "ے</w>"
    ],
    [
      "اس",
      "ب</w>"
    ],
    [
      "w",
      "ar</w>"
    ],
    [
      "ور",
      "ڈ</w>"
    ],
    [
      "اہ",
      "ل"
    ],
    [
      "زی",
      "ر</w>"
    ],
    [
      "ش",
      "ہر</w>"
    ],
    [
      "کر",
      "ایے</w>"
    ],
    [
      "de",
      "kh"
    ],
    [
      "ya",
      "da</w>"
    ],
    [
      "ما",
      "نے</w>"
    ],
    [
      "کو",
      "ڑے</w>"
    ],
    [
      "bo",
      "hot</w>"
    ],
    [
      "la",
      "wa</w>"
    ],
    [
      "tho",
      "ri</w>"
    ],
    [
      "ق",
      "بل</w>"
    ],
    [
      "دی",
      "گر</w>"
    ],
    [
      "سای",
      "نس</w>"
    ],
    [
      "نف",
      "رت</w>"
    ],
    [
      "تا",
      "کہ</w>"
    ],
    [
      "جای",
      "ز"
    ],
    [
      "ڈای",
      "ری"
    ],
    [
      "مط",
      "ابق</w>"
    ],
    [
      "سن",
      "سنی</w>"
    ],
    [
      "a",
      "e"
    ],
    [
      "ط",
      "ا"
    ],
    [
      "ف",
      "ن</w>"
    ],
    [
      "s",
      "ha</w>"
    ],
    [
      "ی",
      "اد"
    ],
    [
      "خ",
      "ان</w>"
    ],
    [
      "ور",
      "تی</w>"
    ],
    [
      "ba",
      "na</w>"
    ],
    [
      "s",
      "he"
    ],
    [
      "مع",
      "ام"
    ],
    [
      "ڈی",
      "ز"
    ],
    [
      "ع",
      "ات</w>"
    ],
    [
      "mo",
      "ha"
    ],
    [
      "ع",
      "ورت</w>"
    ],
    [
      "دوس",
      "را</w>"
    ],
    [
      "مل",
      "تا</w>"
    ],
    [
      "مب",
      "نی</w>"
    ],
    [
      "اع",
      "لی</w>"
    ],
    [
      "سمج",
      "ھا</w>"
    ],
    [
      "آس",
      "انی</w>"
    ],
    [
      "ex",
      "pe"
    ],
    [
      "مقاب",
      "لہ</w>"
    ],
    [
      "خلا",
      "ف</w>"
    ],
    [
      "دل",
      "کش</w>"
    ],
    [
      "زب",
      "ان</w>"
    ],
    [
      "کاپ",
      "ی</w>"
    ],
    [
      "رق",
      "م</w>"
    ],
    [
      "e",
      "d</w>"
    ],
    [
      "ع",
      "ے</w>"
    ],
    [
      "v",
      "o"
    ],
    [
      "ب",
      "و</w>"
    ],
    [
      "م",
      "س</w>"
    ],
    [
      "ج",
      "ہ"
    ],
    [
      "کر",
      "و"
    ],
    [
      "na",
      "h</w>"
    ],
    [
      "sa",
      "s"
    ],
    [
      "wa",
      "z"
    ],
    [
      "ba",
      "n</w>"
    ],
    [
      "ڈ",
      "اک"
    ],
    [
      "سی",
      "ن"
    ],
    [
      "بی",
      "ان</w>"
    ],
    [
      "li",
      "a</w>"
    ],
    [
      "pa",
      "t"
    ],
    [
      "da",
      "in</w>"
    ],
    [
      "l",
      "ye</w>"
    ],
    [
      "ر",
      "نگ</w>"
    ],
    [
      "ba",
      "nd</w>"
    ],
    [
      "انت",
      "خ"
    ],
    [
      "ve",
      "r</w>"
    ],
    [
      "w",
      "aad</w>"
    ],
    [
      "گر",
      "م</w>"
    ],
    [
      "ز",
      "مین</w>"
    ],
    [
      "بیٹ",
      "ھ</w>"
    ],
    [
      "تھو",
      "ڑی</w>"
    ],
    [
      "ڈیو",
      "ڈ</w>"
    ],
    [
      "مای",
      "وسی</w>"
    ],
    [
      "do",
      "no</w>"
    ],
    [
      "jal",
      "di</w>"
    ],
    [
      "تع",
      "ریف</w>"
    ],
    [
      "laho",
      "re</w>"
    ],
    [
      "b",
      "e</w>"
    ],
    [
      "ای",
      "ڈ"
    ],
    [
      "فل",
      "ک</w>"
    ],
    [
      "aa",
      "ta</w>"
    ],
    [
      "ba",
      "z"
    ],
    [
      "in",
      "t</w>"
    ],
    [
      "z",
      "in"
    ],
    [
      "te",
      "a</w>"
    ],
    [
      "ب",
      "رو"
    ],
    [
      "بن",
      "نا</w>"
    ],
    [
      "kar",
      "ti</w>"
    ],
    [
      "چ",
      "لا</w>"
    ],
    [
      "ke",
      "n</w>"
    ],
    [
      "ro",
      "z</w>"
    ],
    [
      "ن",
      "ڈی</w>"
    ],
    [
      "qa",
      "t</w>"
    ],
    [
      "ع",
      "ین</w>"
    ],
    [
      "گو",
      "لی</w>"
    ],
    [
      "حی",
      "ران</w>"
    ],
    [
      "muj",
      "hy</w>"
    ],
    [
      "آس",
      "ان</w>"
    ],
    [
      "ہنس",
      "نے</w>"
    ],
    [
      "bara",
      "h</w>"
    ],
    [
      "گرا",
      "فی</w>"
    ],
    [
      "u",
      "mee"
    ],
    [
      "tara",
      "f</w>"
    ],
    [
      "waq",
      "qa</w>"
    ],
    [
      "لف",
      "ظ</w>"
    ],
    [
      "جت",
      "نا</w>"
    ],
    [
      "آ",
      "وٹ</w>"
    ],
    [
      "مایی",
      "کل</w>"
    ],
    [
      "ڈایری",
      "کٹر</w>"
    ],
    [
      "خوبص",
      "ورتی</w>"
    ],
    [
      "ڈاک",
      "ٹر</w>"
    ],
    [
      "انتخ",
      "اب</w>"
    ],
    [
      "ma",
      "waad</w>"
    ],
    [
      "ی",
      "ا"
    ],
    [
      "r",
      "u</w>"
    ],
    [
      "g",
      "h"
    ],
    [
      "چ",
      "ی</w>"
    ],
    [
      "s",
      "c"
    ],
    [
      "d",
      "o</w>"
    ],
    [
      "ر",
      "س</w>"
    ],
    [
      "r",
      "d</w>"
    ],
    [
      "چ",
      "ار"
    ],
    [
      "لی",
      "ز</w>"
    ],
    [
      "ma",
      "t"
    ],
    [
      "ع",
      "وا"
    ],
    [
      "د",
      "را"
    ],
    [
      "me",
      "ne</w>"
    ],
    [
      "خ",
      "ال"
    ],
    [
      "in",
      "a</w>"
    ],
    [
      "گ",
      "رو"
    ],
    [
      "da",
      "d</w>"
    ],
    [
      "د",
      "ما"
    ],
    [
      "ک",
      "می</w>"
    ],
    [
      "ہو",
      "گیی</w>"
    ],
    [
      "کش",
      "ی</w>"
    ],
    [
      "mo",
      "bil"
    ],
    [
      "جان",
      "تے</w>"
    ],
    [
      "مت",
      "حر"
    ],
    [
      "مج",
      "بور</w>"
    ],
    [
      "لک",
      "ھا</w>"
    ],
    [
      "جذ",
      "بات</w>"
    ],
    [
      "yo",
      "u</w>"
    ],
    [
      "بھو",
      "ل</w>"
    ],
    [
      "دوست",
      "وں</w>"
    ],
    [
      "m",
      "ber</w>"
    ],
    [
      "pic",
      "ture</w>"
    ],
    [
      "pur",
      "sukoon</w>"
    ],
    [
      "ترتی",
      "ب</w>"
    ],
    [
      "hu",
      "kum</w>"
    ],
    [
      "ذری",
      "عے</w>"
    ],
    [
      "متحر",
      "ک</w>"
    ],
    [
      "v",
      "a"
    ],
    [
      "س",
      "و</w>"
    ],
    [
      "غ",
      "ر"
    ],
    [
      "گ",
      "ن</w>"
    ],
    [
      "p",
      "ha"
    ],
    [
      "پ",
      "را"
    ],
    [
      "لا",
      "ب</w>"
    ],
    [
      "ش",
      "اہ"
    ],
    [
      "کر",
      "دہ</w>"
    ],
    [
      "با",
      "ل</w>"
    ],
    [
      "د",
      "ایی</w>"
    ],
    [
      "ہو",
      "گیا</w>"
    ],
    [
      "w",
      "it"
    ],
    [
      "ba",
      "nay</w>"
    ],
    [
      "اسٹ",
      "وری</w>"
    ],
    [
      "s",
      "tu"
    ],
    [
      "سمج",
      "ھ</w>"
    ],
    [
      "کامی",
      "اب</w>"
    ],
    [
      "shir",
      "t</w>"
    ],
    [
      "kar",
      "oon</w>"
    ],
    [
      "نا",
      "گوار</w>"
    ],
    [
      "bara",
      "y</w>"
    ],
    [
      "اک",
      "ثر</w>"
    ],
    [
      "khari",
      "dari</w>"
    ],
    [
      "اعت",
      "ماد</w>"
    ],
    [
      "ش",
      "ت</w>"
    ],
    [
      "*",
      "*</w>"
    ],
    [
      "ب",
      "خ"
    ],
    [
      "ڈ",
      "ز"
    ],
    [
      "آ",
      "ز"
    ],
    [
      "ف",
      "ت</w>"
    ],
    [
      "ش",
      "ک"
    ],
    [
      "ن",
      "ل</w>"
    ],
    [
      "چ",
      "کی</w>"
    ],
    [
      "کر",
      "یہ</w>"
    ],
    [
      "aa",
      "b</w>"
    ],
    [
      "ma",
      "u"
    ],
    [
      "l",
      "ac"
    ],
    [
      "ta",
      "m</w>"
    ],
    [
      "م",
      "ور"
    ],
    [
      "کی",
      "لیے</w>"
    ],
    [
      "in",
      "te"
    ],
    [
      "اب",
      "ی</w>"
    ],
    [
      "گ",
      "ھو"
    ],
    [
      "b",
      "ri"
    ],
    [
      "a",
      "un"
    ],
    [
      "t",
      "ro"
    ],
    [
      "رکھ",
      "تے</w>"
    ],
    [
      "نا",
      "ول</w>"
    ],
    [
      "me",
      "nt</w>"
    ],
    [
      "دھ",
      "ر"
    ],
    [
      "man",
      "g"
    ],
    [
      "mu",
      "kam"
    ],
    [
      "مش",
      "ہور</w>"
    ],
    [
      "راس",
      "تے</w>"
    ],
    [
      "سنجی",
      "دہ</w>"
    ],
    [
      "joo",
      "tay</w>"
    ],
    [
      "تعل",
      "قات</w>"
    ],
    [
      "تخ",
      "لی"
    ],
    [
      "نتی",
      "جہ</w>"
    ],
    [
      "bla",
      "des</w>"
    ],
    [
      "درمی",
      "ان</w>"
    ],
    [
      "ta",
      "waqqa</w>"
    ],
    [
      "mobil",
      "e</w>"
    ],
    [
      "mukam",
      "mal</w>"
    ],
    [
      "م",
      "د</w>"
    ],
    [
      "d",
      "y</w>"
    ],
    [
      "ذ",
      "ب</w>"
    ],
    [
      "d",
      "ho"
    ],
    [
      "n",
      "ee"
    ],
    [
      "ta",
      "ne</w>"
    ],
    [
      "ک",
      "ال"
    ],
    [
      "ba",
      "y</w>"
    ],
    [
      "ی",
      "ہی</w>"
    ],
    [
      "ع",
      "لی</w>"
    ],
    [
      "س",
      "ادہ</w>"
    ],
    [
      "کہ",
      "اں</w>"
    ],
    [
      "ح",
      "کو"
    ],
    [
      "ست",
      "ارے</w>"
    ],
    [
      "جا",
      "و</w>"
    ],
    [
      "d",
      "aar</w>"
    ],
    [
      "س",
      "ٹر</w>"
    ],
    [
      "be",
      "st</w>"
    ],
    [
      "se",
      "r"
    ],
    [
      "ٹ",
      "ون</w>"
    ],
    [
      "al",
      "ly</w>"
    ],
    [
      "pa",
      "han"
    ],
    [
      "f",
      "or</w>"
    ],
    [
      "اش",
      "ت</w>"
    ],
    [
      "l",
      "lah</w>"
    ],
    [
      "پ",
      "تہ</w>"
    ],
    [
      "لم",
      "بے</w>"
    ],
    [
      "haa",
      "sil</w>"
    ],
    [
      "و",
      "غی"
    ],
    [
      "aw",
      "la</w>"
    ],
    [
      "سا",
      "ونڈ</w>"
    ],
    [
      "zi",
      "ada</w>"
    ],
    [
      "ض",
      "یا"
    ],
    [
      "ش",
      "کریہ</w>"
    ],
    [
      "pahan",
      "nay</w>"
    ],
    [
      "وغی",
      "رہ</w>"
    ],
    [
      "د",
      "ہ"
    ],
    [
      "ڈ",
      "ٹ</w>"
    ],
    [
      "ن",
      "ت"
    ],
    [
      "ف",
      "ح"
    ],
    [
      "ذ",
      "ی"
    ],
    [
      "w",
      "w"
    ],
    [
      "آ",
      "غ"
    ],
    [
      "س",
      "م</w>"
    ],
    [
      "ش",
      "ک</w>"
    ],
    [
      "ک",
      "وں</w>"
    ],
    [
      "ک",
      "لی"
    ],
    [
      "me",
      "n"
    ],
    [
      "م",
      "اس"
    ],
    [
      "b",
      "ra"
    ],
    [
      "la",
      "m"
    ],
    [
      "گی",
      "ن</w>"
    ],
    [
      "آ",
      "تے</w>"
    ],
    [
      "in",
      "d"
    ],
    [
      "i",
      "te"
    ],
    [
      "رو",
      "م</w>"
    ],
    [
      "ka",
      "ha</w>"
    ],
    [
      "ذ",
      "کر</w>"
    ],
    [
      "cha",
      "n"
    ],
    [
      "ho",
      "nay</w>"
    ],
    [
      "d",
      "il</w>"
    ],
    [
      "kha",
      "il</w>"
    ],
    [
      "او",
      "ن</w>"
    ],
    [
      "lo",
      "g</w>"
    ],
    [
      "co",
      "lo"
    ],
    [
      "al",
      "l</w>"
    ],
    [
      "تھ",
      "ر"
    ],
    [
      "بن",
      "اییں</w>"
    ],
    [
      "نڈ",
      "ا</w>"
    ],
    [
      "اٹھ",
      "ایا</w>"
    ],
    [
      "chah",
      "ta</w>"
    ],
    [
      "چیز",
      "وں</w>"
    ],
    [
      "bac",
      "hon</w>"
    ],
    [
      "چھو",
      "ٹا</w>"
    ],
    [
      "tas",
      "w"
    ],
    [
      "نق",
      "طہ</w>"
    ],
    [
      "حر",
      "کت</w>"
    ],
    [
      "سام",
      "عین</w>"
    ],
    [
      "ابت",
      "دایی</w>"
    ],
    [
      "ڈز",
      "نی</w>"
    ],
    [
      "kha",
      "tam</w>"
    ],
    [
      "مہ",
      "ذب</w>"
    ],
    [
      "ضیا",
      "ع</w>"
    ],
    [
      "ت",
      "ن"
    ],
    [
      "ش",
      "ل</w>"
    ],
    [
      "ت",
      "ب</w>"
    ],
    [
      "ha",
      "d</w>"
    ],
    [
      "ان",
      "ق"
    ],
    [
      "دی",
      "ر</w>"
    ],
    [
      "ee",
      "m</w>"
    ],
    [
      "م",
      "ان</w>"
    ],
    [
      "ba",
      "l"
    ],
    [
      "م",
      "لا"
    ],
    [
      "m",
      "in"
    ],
    [
      "اک",
      "س</w>"
    ],
    [
      "f",
      "ara"
    ],
    [
      "it",
      "s</w>"
    ],
    [
      "بی",
      "ٹی</w>"
    ],
    [
      "ke",
      "h"
    ],
    [
      "خ",
      "اند"
    ],
    [
      "u",
      "ch</w>"
    ],
    [
      "ب",
      "اتی</w>"
    ],
    [
      "پڑ",
      "ھ"
    ],
    [
      "بھ",
      "ایی</w>"
    ],
    [
      "khu",
      "sh"
    ],
    [
      "mu",
      "sh"
    ],
    [
      "چل",
      "نے</w>"
    ],
    [
      "پرو",
      "ڈ"
    ],
    [
      "ٹک",
      "ڑا</w>"
    ],
    [
      "mj",
      "he</w>"
    ],
    [
      "سال",
      "وں</w>"
    ],
    [
      "ma",
      "gar</w>"
    ],
    [
      "pla",
      "sti"
    ],
    [
      "رومان",
      "ٹک</w>"
    ],
    [
      "پسن",
      "دانہ</w>"
    ],
    [
      "may",
      "oo"
    ],
    [
      "دست",
      "اوی"
    ],
    [
      "پرا",
      "نے</w>"
    ],
    [
      "آغ",
      "از</w>"
    ],
    [
      "ک",
      "س"
    ],
    [
      "r",
      "o</w>"
    ],
    [
      "ض",
      "و"
    ],
    [
      "س",
      "ط</w>"
    ],
    [
      "فل",
      "ی"
    ],
    [
      "z",
      "in</w>"
    ],
    [
      "پ",
      "ان"
    ],
    [
      "sa",
      "b"
    ],
    [
      "ور",
      "ہ</w>"
    ],
    [
      "mu",
      "n"
    ],
    [
      "kar",
      "o</w>"
    ],
    [
      "جی",
      "ن</w>"
    ],
    [
      "م",
      "اں</w>"
    ],
    [
      "دی",
      "یے</w>"
    ],
    [
      "te",
      "ri"
    ],
    [
      "ap",
      "na</w>"
    ],
    [
      "غ",
      "لط"
    ],
    [
      "lo",
      "w</w>"
    ],
    [
      "لڑ",
      "کا</w>"
    ],
    [
      "دکھ",
      "ایا</w>"
    ],
    [
      "ہو",
      "جاتی</w>"
    ],
    [
      "مس",
      "ٹر</w>"
    ],
    [
      "امری",
      "کہ</w>"
    ],
    [
      "معمو",
      "ل</w>"
    ],
    [
      "نظ",
      "ر"
    ],
    [
      "tara",
      "h</w>"
    ],
    [
      "than",
      "ks</w>"
    ],
    [
      "zaroo",
      "r</w>"
    ],
    [
      "kee",
      "mat</w>"
    ],
    [
      "صلاحی",
      "توں</w>"
    ],
    [
      "لکی",
      "ر</w>"
    ],
    [
      "آن",
      "کھ"
    ],
    [
      "پر",
      "جوش</w>"
    ],
    [
      "ری",
      "لیز</w>"
    ],
    [
      "جذ",
      "باتی</w>"
    ],
    [
      "plasti",
      "c</w>"
    ],
    [
      "دستاوی",
      "زی</w>"
    ],
    [
      "مو",
      "ضو"
    ],
    [
      "غلط",
      "ی</w>"
    ],
    [
      "پ",
      "ا"
    ],
    [
      "ل",
      "گ</w>"
    ],
    [
      "ص",
      "ل</w>"
    ],
    [
      "م",
      "ر</w>"
    ],
    [
      "t",
      "t"
    ],
    [
      "ت",
      "ف"
    ],
    [
      "گ",
      "ہ"
    ],
    [
      "ف",
      "ض"
    ],
    [
      "ڈ",
      "ا</w>"
    ],
    [
      "پ",
      "ڑ</w>"
    ],
    [
      "ha",
      "f"
    ],
    [
      "ل",
      "نے</w>"
    ],
    [
      "ان",
      "س</w>"
    ],
    [
      "ب",
      "ار"
    ],
    [
      "j",
      "ac"
    ],
    [
      "ت",
      "نا"
    ],
    [
      "اس",
      "پی"
    ],
    [
      "d",
      "oo"
    ],
    [
      "پی",
      "رو"
    ],
    [
      "بر",
      "گ</w>"
    ],
    [
      "من",
      "د</w>"
    ],
    [
      "من",
      "ت"
    ],
    [
      "بی",
      "وی</w>"
    ],
    [
      "پہ",
      "لا</w>"
    ],
    [
      "su",
      "s"
    ],
    [
      "پ",
      "ایا</w>"
    ],
    [
      "ni",
      "ce</w>"
    ],
    [
      "مب",
      "ر</w>"
    ],
    [
      "خ",
      "دا</w>"
    ],
    [
      "saa",
      "f</w>"
    ],
    [
      "مت",
      "عل"
    ],
    [
      "pp",
      "ing</w>"
    ],
    [
      "ق",
      "رار</w>"
    ],
    [
      "عن",
      "وان</w>"
    ],
    [
      "لنگ",
      "ڑا</w>"
    ],
    [
      "تج",
      "ویز</w>"
    ],
    [
      "ق",
      "ادری</w>"
    ],
    [
      "shu",
      "ru</w>"
    ],
    [
      "خ",
      "ر"
    ],
    [
      "ص",
      "ے</w>"
    ],
    [
      "س",
      "چ</w>"
    ],
    [
      "ع",
      "ت</w>"
    ],
    [
      "چ",
      "ہ"
    ],
    [
      "ا",
      "ط"
    ],
    [
      "ha",
      "r"
    ],
    [
      "ای",
      "و"
    ],
    [
      "م",
      "ری"
    ],
    [
      "را",
      "ک</w>"
    ],
    [
      "وی",
      "سے</w>"
    ],
    [
      "ب",
      "نی</w>"
    ],
    [
      "رو",
      "ف</w>"
    ],
    [
      "قی",
      "ان"
    ],
    [
      "قی",
      "ن</w>"
    ],
    [
      "ش",
      "دہ</w>"
    ],
    [
      "ت",
      "با"
    ],
    [
      "z",
      "ai"
    ],
    [
      "f",
      "re"
    ],
    [
      "s",
      "to"
    ],
    [
      "ٹی",
      "پ</w>"
    ],
    [
      "م",
      "ناک</w>"
    ],
    [
      "ج",
      "نو"
    ],
    [
      "جن",
      "س</w>"
    ],
    [
      "wo",
      "hi</w>"
    ],
    [
      "رکھ",
      "یں</w>"
    ],
    [
      "ٹر",
      "ز</w>"
    ],
    [
      "ho",
      "wa</w>"
    ],
    [
      "آر",
      "ٹ</w>"
    ],
    [
      "sh",
      "ish</w>"
    ],
    [
      "mutma",
      "een</w>"
    ],
    [
      "ف",
      "ہر"
    ],
    [
      "ho",
      "jata</w>"
    ],
    [
      "ٹک",
      "ڑے</w>"
    ],
    [
      "رح",
      "م</w>"
    ],
    [
      "ذہ",
      "ن</w>"
    ],
    [
      "maj",
      "mo"
    ],
    [
      "wa",
      "tch</w>"
    ],
    [
      "فرا",
      "موش</w>"
    ],
    [
      "من",
      "اسب</w>"
    ],
    [
      "فہر",
      "ست</w>"
    ],
    [
      "ر",
      "م</w>"
    ],
    [
      "ا",
      "ڑ"
    ],
    [
      "l",
      "s</w>"
    ],
    [
      "د",
      "ع"
    ],
    [
      "j",
      "i</w>"
    ],
    [
      "ای",
      "ف</w>"
    ],
    [
      "sa",
      "m</w>"
    ],
    [
      "اد",
      "ر</w>"
    ],
    [
      "ج",
      "اد"
    ],
    [
      "j",
      "ee"
    ],
    [
      "b",
      "ta"
    ],
    [
      "b",
      "ta</w>"
    ],
    [
      "پی",
      "ٹ</w>"
    ],
    [
      "پی",
      "سے</w>"
    ],
    [
      "r",
      "oo"
    ],
    [
      "کہ",
      "نے</w>"
    ],
    [
      "ga",
      "y</w>"
    ],
    [
      "da",
      "i"
    ],
    [
      "ص",
      "حی"
    ],
    [
      "ر",
      "ایے</w>"
    ],
    [
      "بع",
      "ض</w>"
    ],
    [
      "در",
      "ست</w>"
    ],
    [
      "gha",
      "n"
    ],
    [
      "an",
      "d"
    ],
    [
      "so",
      "rat</w>"
    ],
    [
      "ٹ",
      "ایم</w>"
    ],
    [
      "آد",
      "ھے</w>"
    ],
    [
      "مد",
      "اح</w>"
    ],
    [
      "آس",
      "ٹری"
    ],
    [
      "j",
      "ood</w>"
    ],
    [
      "de",
      "kha</w>"
    ],
    [
      "ش",
      "تہ</w>"
    ],
    [
      "فای",
      "دہ</w>"
    ],
    [
      "en",
      "ce</w>"
    ],
    [
      "ha",
      "sil</w>"
    ],
    [
      "char",
      "ge</w>"
    ],
    [
      "ni",
      "cer</w>"
    ],
    [
      "سط",
      "ح</w>"
    ],
    [
      "kha",
      "as</w>"
    ],
    [
      "achch",
      "ca</w>"
    ],
    [
      "umee",
      "d</w>"
    ],
    [
      "کری",
      "ڈٹ</w>"
    ],
    [
      "tasw",
      "eer</w>"
    ],
    [
      "پروڈ",
      "کشن</w>"
    ],
    [
      "mayoo",
      "s</w>"
    ],
    [
      "د",
      "قیان"
    ],
    [
      "صحی",
      "ح</w>"
    ],
    [
      "c",
      "s</w>"
    ],
    [
      "ڈ",
      "ن</w>"
    ],
    [
      "h",
      "n</w>"
    ],
    [
      "z",
      "z"
    ],
    [
      "م",
      "ٹ"
    ],
    [
      "b",
      "s</w>"
    ],
    [
      "ف",
      "ٹ</w>"
    ],
    [
      "ب",
      "وں</w>"
    ],
    [
      "ان",
      "گ</w>"
    ],
    [
      "l",
      "ar"
    ],
    [
      "ee",
      "z</w>"
    ],
    [
      "r",
      "ac"
    ],
    [
      "ta",
      "k"
    ],
    [
      "bo",
      "x</w>"
    ],
    [
      "ba",
      "ki</w>"
    ],
    [
      "بی",
      "ک</w>"
    ],
    [
      "س",
      "لو"
    ],
    [
      "ج",
      "ھو"
    ],
    [
      "رہ",
      "تے</w>"
    ],
    [
      "o",
      "ri"
    ],
    [
      "cha",
      "l</w>"
    ],
    [
      "ش",
      "کل</w>"
    ],
    [
      "si",
      "te</w>"
    ],
    [
      "in",
      "ho</w>"
    ],
    [
      "wa",
      "le</w>"
    ],
    [
      "ya",
      "han</w>"
    ],
    [
      "د",
      "اد</w>"
    ],
    [
      "تی",
      "زی</w>"
    ],
    [
      "شی",
      "ط"
    ],
    [
      "ہو",
      "شی"
    ],
    [
      "پ",
      "چھ"
    ],
    [
      "q",
      "mi"
    ],
    [
      "ky",
      "un</w>"
    ],
    [
      "ہنس",
      "نا</w>"
    ],
    [
      "ان",
      "گری"
    ],
    [
      "gha",
      "ir</w>"
    ],
    [
      "v",
      "eer</w>"
    ],
    [
      "لم",
      "بی</w>"
    ],
    [
      "مکال",
      "مے</w>"
    ],
    [
      "lea",
      "se</w>"
    ],
    [
      "m",
      "mer</w>"
    ],
    [
      "i",
      "lawa</w>"
    ],
    [
      "شاہ",
      "کار</w>"
    ],
    [
      "wit",
      "h</w>"
    ],
    [
      "mang",
      "wa"
    ],
    [
      "متعل",
      "ق</w>"
    ],
    [
      "دقیان",
      "وسی</w>"
    ],
    [
      "ہوشی",
      "ار</w>"
    ],
    [
      "qmi",
      "zin</w>"
    ],
    [
      "ح",
      "م"
    ],
    [
      "و",
      "ز</w>"
    ],
    [
      "ت",
      "م</w>"
    ],
    [
      "ع",
      "ی"
    ],
    [
      "ر",
      "ڈ</w>"
    ],
    [
      "a",
      "m"
    ],
    [
      "e",
      "s"
    ],
    [
      "ق",
      "و"
    ],
    [
      "p",
      "y</w>"
    ],
    [
      "k",
      "y</w>"
    ],
    [
      "ط",
      "ے</w>"
    ],
    [
      "غ",
      "ور</w>"
    ],
    [
      "گ",
      "ور</w>"
    ],
    [
      "e",
      "in</w>"
    ],
    [
      "لی",
      "ٹ</w>"
    ],
    [
      "s",
      "hi</w>"
    ],
    [
      "n",
      "aa"
    ],
    [
      "وا",
      "ل</w>"
    ],
    [
      "کی",
      "ن</w>"
    ],
    [
      "کھ",
      "و"
    ],
    [
      "کھ",
      "و</w>"
    ],
    [
      "پی",
      "غ"
    ],
    [
      "re",
      "h"
    ],
    [
      "b",
      "aal</w>"
    ],
    [
      "kh",
      "il"
    ],
    [
      "ya",
      "l</w>"
    ],
    [
      "bu",
      "s</w>"
    ],
    [
      "peh",
      "li</w>"
    ],
    [
      "تر",
      "قی</w>"
    ],
    [
      "بن",
      "اتے</w>"
    ],
    [
      "ہو",
      "گیے</w>"
    ],
    [
      "تحری",
      "ک</w>"
    ],
    [
      "کا",
      "ش</w>"
    ],
    [
      "di",
      "cer</w>"
    ],
    [
      "اس",
      "رار</w>"
    ],
    [
      "re",
      "hta</w>"
    ],
    [
      "تجر",
      "بہ</w>"
    ],
    [
      "حکو",
      "مت</w>"
    ],
    [
      "برد",
      "اشت</w>"
    ],
    [
      "انق",
      "لاب</w>"
    ],
    [
      "شای",
      "قین</w>"
    ],
    [
      "majmo",
      "i</w>"
    ],
    [
      "ل",
      "ت</w>"
    ],
    [
      "ا",
      "ض</w>"
    ],
    [
      "w",
      "n</w>"
    ],
    [
      "خ",
      "ی</w>"
    ],
    [
      "س",
      "ل</w>"
    ],
    [
      "ڈ",
      "ز</w>"
    ],
    [
      "ہ",
      "ٹ</w>"
    ],
    [
      "ھ",
      "وں</w>"
    ],
    [
      "ان",
      "گ"
    ],
    [
      "ط",
      "ان"
    ],
    [
      "لی",
      "ت</w>"
    ],
    [
      "j",
      "aa"
    ],
    [
      "کی",
      "ری"
    ],
    [
      "گ",
      "ار</w>"
    ],
    [
      "sa",
      "i</w>"
    ],
    [
      "می",
      "ت</w>"
    ],
    [
      "می",
      "ل</w>"
    ],
    [
      "می",
      "م</w>"
    ],
    [
      "س",
      "وی"
    ],
    [
      "نا",
      "ظ"
    ],
    [
      "م",
      "ال"
    ],
    [
      "م",
      "سی"
    ],
    [
      "سی",
      "ن</w>"
    ],
    [
      "pa",
      "ta</w>"
    ],
    [
      "ra",
      "he</w>"
    ],
    [
      "سو",
      "س"
    ],
    [
      "ڈ",
      "ھو"
    ],
    [
      "k",
      "iye</w>"
    ],
    [
      "م",
      "اح"
    ],
    [
      "بچ",
      "ہ</w>"
    ],
    [
      "ho",
      "ga</w>"
    ],
    [
      "م",
      "مک"
    ],
    [
      "gha",
      "r"
    ],
    [
      "gha",
      "ri</w>"
    ],
    [
      "beh",
      "te"
    ],
    [
      "گ",
      "ندگی</w>"
    ],
    [
      "c",
      "hota</w>"
    ],
    [
      "گ",
      "انا</w>"
    ],
    [
      "g",
      "aram</w>"
    ],
    [
      "bo",
      "ht</w>"
    ],
    [
      "وی",
      "ژن</w>"
    ],
    [
      "آی",
      "ی"
    ],
    [
      "we",
      "ll</w>"
    ],
    [
      "جاسک",
      "تی</w>"
    ],
    [
      "ju",
      "st</w>"
    ],
    [
      "tab",
      "le</w>"
    ],
    [
      "طری",
      "قہ</w>"
    ],
    [
      "cu",
      "t"
    ],
    [
      "چ",
      "ند</w>"
    ],
    [
      "اض",
      "اف"
    ],
    [
      "ان",
      "صاف</w>"
    ],
    [
      "طری",
      "قے</w>"
    ],
    [
      "ذ",
      "ہین</w>"
    ],
    [
      "گرو",
      "پ</w>"
    ],
    [
      "stu",
      "ff</w>"
    ],
    [
      "his",
      "aab</w>"
    ],
    [
      "ser",
      "vice</w>"
    ],
    [
      "کار",
      "ٹون</w>"
    ],
    [
      "mush",
      "k"
    ],
    [
      "teri",
      "al</w>"
    ],
    [
      "درا",
      "صل</w>"
    ],
    [
      "خر",
      "چ</w>"
    ],
    [
      "شر",
      "مناک</w>"
    ],
    [
      "ko",
      "shish</w>"
    ],
    [
      "انگری",
      "زی</w>"
    ],
    [
      "بر",
      "طان"
    ],
    [
      "ناظ",
      "رین</w>"
    ],
    [
      "اف",
      "سوس"
    ],
    [
      "ممک",
      "نہ</w>"
    ],
    [
      "افسوس",
      "ناک</w>"
    ],
    [
      "ا",
      "ق"
    ],
    [
      "ل",
      "ک</w>"
    ],
    [
      "و",
      "ے</w>"
    ],
    [
      "ا",
      "ج</w>"
    ],
    [
      "چ",
      "ر</w>"
    ],
    [
      "س",
      "کے</w>"
    ],
    [
      "ar",
      "e</w>"
    ],
    [
      "ع",
      "ری"
    ],
    [
      "دی",
      "ن</w>"
    ],
    [
      "ج",
      "اس"
    ],
    [
      "اس",
      "کی"
    ],
    [
      "وی",
      "م"
    ],
    [
      "la",
      "m</w>"
    ],
    [
      "ba",
      "ta"
    ],
    [
      "رو",
      "ک"
    ],
    [
      "رو",
      "ک</w>"
    ],
    [
      "آ",
      "سک"
    ],
    [
      "م",
      "اری</w>"
    ],
    [
      "اب",
      "ت</w>"
    ],
    [
      "د",
      "ھو"
    ],
    [
      "g",
      "re"
    ],
    [
      "ت",
      "لا</w>"
    ],
    [
      "س",
      "ٹی"
    ],
    [
      "un",
      "hon</w>"
    ],
    [
      "it",
      "nay</w>"
    ],
    [
      "s",
      "ri</w>"
    ],
    [
      "m",
      "ing</w>"
    ],
    [
      "kh",
      "t</w>"
    ],
    [
      "ب",
      "ھر</w>"
    ],
    [
      "k",
      "is</w>"
    ],
    [
      "ند",
      "ے</w>"
    ],
    [
      "ذ",
      "اتی</w>"
    ],
    [
      "مت",
      "ع"
    ],
    [
      "sa",
      "me</w>"
    ],
    [
      "سوچ",
      "نے</w>"
    ],
    [
      "tu",
      "m</w>"
    ],
    [
      "so",
      "cha</w>"
    ],
    [
      "ach",
      "cha</w>"
    ],
    [
      "ker",
      "ta</w>"
    ],
    [
      "خری",
      "د"
    ],
    [
      "لا",
      "ہور</w>"
    ],
    [
      "با",
      "صلاحیت</w>"
    ],
    [
      "کہ",
      "انی"
    ],
    [
      "مست",
      "قل</w>"
    ],
    [
      "boo",
      "t</w>"
    ],
    [
      "ha",
      "dd</w>"
    ],
    [
      "be",
      "lt</w>"
    ],
    [
      "expe",
      "ri"
    ],
    [
      "kharee",
      "dain</w>"
    ],
    [
      "b",
      "sorat</w>"
    ],
    [
      "تر",
      "میم</w>"
    ],
    [
      "ویم",
      "پای"
    ],
    [
      "مب",
      "تلا</w>"
    ],
    [
      "a",
      "i</w>"
    ],
    [
      "e",
      "r</w>"
    ],
    [
      "ت",
      "ق"
    ],
    [
      "l",
      "d</w>"
    ],
    [
      "w",
      "e</w>"
    ],
    [
      "t",
      "w</w>"
    ],
    [
      "د",
      "م</w>"
    ],
    [
      "ای",
      "ت</w>"
    ],
    [
      "کر",
      "ی</w>"
    ],
    [
      "ا",
      "لی"
    ],
    [
      "چ",
      "کا</w>"
    ],
    [
      "sa",
      "r</w>"
    ],
    [
      "c",
      "la"
    ],
    [
      "o",
      "ne</w>"
    ],
    [
      "ba",
      "k"
    ],
    [
      "رو",
      "ل</w>"
    ],
    [
      "p",
      "he"
    ],
    [
      "he",
      "in</w>"
    ],
    [
      "ف",
      "ایی</w>"
    ],
    [
      "بد",
      "ل</w>"
    ],
    [
      "ا",
      "ون"
    ],
    [
      "گ",
      "ون"
    ],
    [
      "qa",
      "ta</w>"
    ],
    [
      "ho",
      "tay</w>"
    ],
    [
      "ہو",
      "سکتے</w>"
    ],
    [
      "ch",
      "hota</w>"
    ],
    [
      "ک",
      "امل</w>"
    ],
    [
      "sak",
      "tay</w>"
    ],
    [
      "اسک",
      "ور</w>"
    ],
    [
      "aa",
      "yi</w>"
    ],
    [
      "اٹھ",
      "اییں</w>"
    ],
    [
      "بی",
      "مار</w>"
    ],
    [
      "انس",
      "ان</w>"
    ],
    [
      "انس",
      "انی</w>"
    ],
    [
      "haa",
      "lat</w>"
    ],
    [
      "ای",
      "لن</w>"
    ],
    [
      "اعت",
      "را"
    ],
    [
      "س",
      "فر</w>"
    ],
    [
      "bhe",
      "ja</w>"
    ],
    [
      "ط",
      "نز</w>"
    ],
    [
      "مق",
      "امی</w>"
    ],
    [
      "خات",
      "ون</w>"
    ],
    [
      "kap",
      "ra</w>"
    ],
    [
      "sat",
      "is"
    ],
    [
      "baz",
      "aar</w>"
    ],
    [
      "aun",
      "ty</w>"
    ],
    [
      "tri",
      "mmer</w>"
    ],
    [
      "نار",
      "اض</w>"
    ],
    [
      "mushk",
      "il</w>"
    ],
    [
      "آسک",
      "ر</w>"
    ],
    [
      "experi",
      "ence</w>"
    ],
    [
      "kho",
      "bsorat</w>"
    ],
    [
      "و",
      "ف"
    ],
    [
      "ل",
      "م</w>"
    ],
    [
      "ص",
      "ہ</w>"
    ],
    [
      "a",
      "k"
    ],
    [
      "و",
      "ض"
    ],
    [
      "ج",
      "ب"
    ],
    [
      "گ",
      "ڑ"
    ],
    [
      "u",
      "p</w>"
    ],
    [
      "ﯿ",
      "ﮟ</w>"
    ],
    [
      "ر",
      "ای"
    ],
    [
      "r",
      "hi</w>"
    ],
    [
      "ma",
      "r</w>"
    ],
    [
      "ہ",
      "ار</w>"
    ],
    [
      "sa",
      "l"
    ],
    [
      "p",
      "ee"
    ],
    [
      "اس",
      "ر</w>"
    ],
    [
      "d",
      "ra"
    ],
    [
      "ور",
      "وں</w>"
    ],
    [
      "ک",
      "تے</w>"
    ],
    [
      "ش",
      "ان</w>"
    ],
    [
      "ال",
      "گ</w>"
    ],
    [
      "mu",
      "l"
    ],
    [
      "in",
      "d</w>"
    ],
    [
      "hu",
      "n</w>"
    ],
    [
      "m",
      "oo"
    ],
    [
      "de",
      "na</w>"
    ],
    [
      "ت",
      "رین</w>"
    ],
    [
      "a",
      "da"
    ],
    [
      "ho",
      "on</w>"
    ],
    [
      "رہ",
      "نے</w>"
    ],
    [
      "f",
      "ri"
    ],
    [
      "ز",
      "نہ</w>"
    ],
    [
      "ٹی",
      "لی</w>"
    ],
    [
      "co",
      "un"
    ],
    [
      "بچ",
      "ا</w>"
    ],
    [
      "sha",
      "n</w>"
    ],
    [
      "چی",
      "ن</w>"
    ],
    [
      "مر",
      "دہ</w>"
    ],
    [
      "مر",
      "د</w>"
    ],
    [
      "ف",
      "قت</w>"
    ],
    [
      "آ",
      "رہی</w>"
    ],
    [
      "خوا",
      "ب</w>"
    ],
    [
      "سی",
      "اسی</w>"
    ],
    [
      "ش",
      "تر</w>"
    ],
    [
      "عم",
      "ران</w>"
    ],
    [
      "pi",
      "c</w>"
    ],
    [
      "چل",
      "تا</w>"
    ],
    [
      "haa",
      "n</w>"
    ],
    [
      "che",
      "z</w>"
    ],
    [
      "نظ",
      "ارہ</w>"
    ],
    [
      "ہو",
      "جاتے</w>"
    ],
    [
      "si",
      "far"
    ],
    [
      "gha",
      "lat</w>"
    ],
    [
      "پور",
      "ا</w>"
    ],
    [
      "b",
      "bat</w>"
    ],
    [
      "zaroo",
      "rat</w>"
    ],
    [
      "جل",
      "د</w>"
    ],
    [
      "م",
      "صنف</w>"
    ],
    [
      "log",
      "on</w>"
    ],
    [
      "ال",
      "فا"
    ],
    [
      "لمب",
      "ا</w>"
    ],
    [
      "ja",
      "gah</w>"
    ],
    [
      "پی",
      "مانے</w>"
    ],
    [
      "مست",
      "قبل</w>"
    ],
    [
      "la",
      "ken</w>"
    ],
    [
      "دما",
      "غ</w>"
    ],
    [
      "b",
      "lac"
    ],
    [
      "فح",
      "ش</w>"
    ],
    [
      "jac",
      "ket</w>"
    ],
    [
      "behte",
      "reen</w>"
    ],
    [
      "ma",
      "terial</w>"
    ],
    [
      "ث",
      "ابت</w>"
    ],
    [
      "ویمپای",
      "ر</w>"
    ],
    [
      "va",
      "qata</w>"
    ],
    [
      "موا",
      "زنہ</w>"
    ],
    [
      "sifar",
      "ish</w>"
    ],
    [
      "moha",
      "bbat</w>"
    ],
    [
      "الفا",
      "ظ</w>"
    ],
    [
      "blac",
      "k</w>"
    ],
    [
      "ش",
      "ہ"
    ],
    [
      "a",
      "z"
    ],
    [
      "غ",
      "ض"
    ],
    [
      "و",
      "یں</w>"
    ],
    [
      "ذ",
      "ای"
    ],
    [
      "ر",
      "ہیں</w>"
    ],
    [
      "ی",
      "وں</w>"
    ],
    [
      "ٹ",
      "وں</w>"
    ],
    [
      "م",
      "وں</w>"
    ],
    [
      "ان",
      "ت</w>"
    ],
    [
      "k",
      "hi</w>"
    ],
    [
      "aa",
      "z</w>"
    ],
    [
      "ری",
      "ٹ</w>"
    ],
    [
      "f",
      "ac"
    ],
    [
      "ک",
      "ور"
    ],
    [
      "wa",
      "p"
    ],
    [
      "لا",
      "ک</w>"
    ],
    [
      "il",
      "a</w>"
    ],
    [
      "کرد",
      "ی</w>"
    ],
    [
      "sa",
      "hi"
    ],
    [
      "ٹ",
      "ھو"
    ],
    [
      "t",
      "re"
    ],
    [
      "اف",
      "ت</w>"
    ],
    [
      "k",
      "it"
    ],
    [
      "u",
      "nd</w>"
    ],
    [
      "پر",
      "انی</w>"
    ],
    [
      "ی",
      "ات</w>"
    ],
    [
      "اح",
      "ت</w>"
    ],
    [
      "ra",
      "te</w>"
    ],
    [
      "re",
      "su"
    ],
    [
      "i",
      "za"
    ],
    [
      "ج",
      "ما"
    ],
    [
      "مش",
      "ت"
    ],
    [
      "ran",
      "g"
    ],
    [
      "تھ",
      "ام"
    ],
    [
      "اٹ",
      "ھا</w>"
    ],
    [
      "حص",
      "وں</w>"
    ],
    [
      "گ",
      "انے</w>"
    ],
    [
      "اح",
      "مق"
    ],
    [
      "بن",
      "انا</w>"
    ],
    [
      "جو",
      "ڑے</w>"
    ],
    [
      "ag",
      "ar"
    ],
    [
      "بنا",
      "تا</w>"
    ],
    [
      "c",
      "al</w>"
    ],
    [
      "پریش",
      "انی</w>"
    ],
    [
      "ڈرا",
      "و"
    ],
    [
      "بیٹ",
      "ھ"
    ],
    [
      "قد",
      "رے</w>"
    ],
    [
      "bac",
      "he</w>"
    ],
    [
      "پرو",
      "ڈیو"
    ],
    [
      "te",
      "am</w>"
    ],
    [
      "ar",
      "ey</w>"
    ],
    [
      "راس",
      "ت</w>"
    ],
    [
      "dos",
      "ray</w>"
    ],
    [
      "تعل",
      "ق</w>"
    ],
    [
      "بر",
      "باد</w>"
    ],
    [
      "ما",
      "ضی</w>"
    ],
    [
      "haha",
      "haha</w>"
    ],
    [
      "ka",
      "hin</w>"
    ],
    [
      "نا",
      "ممکن</w>"
    ],
    [
      "لا",
      "جواب</w>"
    ],
    [
      "a",
      "waz</w>"
    ],
    [
      "me",
      "sha</w>"
    ],
    [
      "خال",
      "ص</w>"
    ],
    [
      "لڑ",
      "کوں</w>"
    ],
    [
      "ماس",
      "ٹر</w>"
    ],
    [
      "پان",
      "چ</w>"
    ],
    [
      "مش",
      "ورہ</w>"
    ],
    [
      "پیغ",
      "ام</w>"
    ],
    [
      "اضاف",
      "ہ</w>"
    ],
    [
      "جب",
      "کہ</w>"
    ],
    [
      "بی",
      "شتر</w>"
    ],
    [
      "احمق",
      "انہ</w>"
    ],
    [
      "ل",
      "ن"
    ],
    [
      "چ",
      "ھ</w>"
    ],
    [
      "ا",
      "ٹ</w>"
    ],
    [
      "w",
      "i"
    ],
    [
      "چ",
      "م"
    ],
    [
      "ز",
      "و"
    ],
    [
      "p",
      "r</w>"
    ],
    [
      "j",
      "b</w>"
    ],
    [
      "ز",
      "ا</w>"
    ],
    [
      "پ",
      "ا</w>"
    ],
    [
      "ٹ",
      "م</w>"
    ],
    [
      "ن",
      "یں</w>"
    ],
    [
      "و",
      "ای"
    ],
    [
      "چ",
      "کے</w>"
    ],
    [
      "ش",
      "وں</w>"
    ],
    [
      "س",
      "بھی</w>"
    ],
    [
      "س",
      "نا</w>"
    ],
    [
      "ta",
      "n</w>"
    ],
    [
      "ل",
      "وی"
    ],
    [
      "لی",
      "تے</w>"
    ],
    [
      "in",
      "g"
    ],
    [
      "s",
      "te"
    ],
    [
      "t",
      "hat</w>"
    ],
    [
      "aa",
      "ya</w>"
    ],
    [
      "اگ",
      "لی</w>"
    ],
    [
      "سی",
      "ک"
    ],
    [
      "ہ",
      "اتھ</w>"
    ],
    [
      "جی",
      "ک</w>"
    ],
    [
      "li",
      "ke</w>"
    ],
    [
      "بر",
      "ے</w>"
    ],
    [
      "ش",
      "وق"
    ],
    [
      "r",
      "on</w>"
    ],
    [
      "s",
      "pe"
    ],
    [
      "واقع",
      "ہ</w>"
    ],
    [
      "cha",
      "m"
    ],
    [
      "اح",
      "ت"
    ],
    [
      "qa",
      "y</w>"
    ],
    [
      "بو",
      "ل</w>"
    ],
    [
      "چھو",
      "ڑ"
    ],
    [
      "al",
      "i</w>"
    ],
    [
      "p",
      "lay</w>"
    ],
    [
      "bu",
      "ri</w>"
    ],
    [
      "tu",
      "m"
    ],
    [
      "ni",
      "ka"
    ],
    [
      "sak",
      "ti</w>"
    ],
    [
      "من",
      "صو"
    ],
    [
      "فر",
      "ق</w>"
    ],
    [
      "kharee",
      "d</w>"
    ],
    [
      "مار",
      "نے</w>"
    ],
    [
      "thee",
      "n</w>"
    ],
    [
      "ha",
      "al</w>"
    ],
    [
      "wa",
      "ja</w>"
    ],
    [
      "نو",
      "عمر</w>"
    ],
    [
      "pa",
      "isay</w>"
    ],
    [
      "the",
      "r</w>"
    ],
    [
      "ت",
      "ازہ</w>"
    ],
    [
      "ba",
      "lon</w>"
    ],
    [
      "س",
      "چی</w>"
    ],
    [
      "کامی",
      "ابی</w>"
[...]
